/**
  ******************************************************************************
  * @file    network_data_params.c
  * @author  AST Embedded Analytics Research Platform
  * @date    Tue Nov 28 14:00:43 2023
  * @brief   AI Tool Automatic Code Generator for Embedded NN computing
  ******************************************************************************
  * Copyright (c) 2023 STMicroelectronics.
  * All rights reserved.
  *
  * This software is licensed under terms that can be found in the LICENSE file
  * in the root directory of this software component.
  * If no LICENSE file comes with this software, it is provided AS-IS.
  ******************************************************************************
  */

#include "network_data_params.h"


/**  Activations Section  ****************************************************/
ai_handle g_network_activations_table[1 + 2] = {
  AI_HANDLE_PTR(AI_MAGIC_MARKER),
  AI_HANDLE_PTR(NULL),
  AI_HANDLE_PTR(AI_MAGIC_MARKER),
};




/**  Weights Section  ********************************************************/
AI_ALIGNED(32)
const ai_u64 s_network_weights_array_u64[24307] = {
  0xbf19af56bcbb287dU, 0x3f00fa6cbf01ba5fU, 0xbba0fd7abe7dc453U, 0xbd0022973e8c692cU,
  0xbefdcc46bd5204f6U, 0xbdbc3f69bebe4446U, 0xbeb26e0bbec65f0cU, 0xbe6af458bf0e283eU,
  0x3e32b012bea2e6a8U, 0x3e6a71903eba325fU, 0x3de1b20c3e19d6dcU, 0x3e7aa3b83ebee537U,
  0x3e30962bbe87268fU, 0xbf0cb7b03e3df620U, 0x3e41d52bbe770ea5U, 0xbe45ae033e3dd05aU,
  0xbee5f3eabeade525U, 0xbeaf15bd3ec510e4U, 0xbdc5e160beeabeb6U, 0x3e31d39abf12eb9eU,
  0xbe8fe17abf07ab0cU, 0x3eddf2c33bfce906U, 0xbebb630dbec44607U, 0xbdf41ec6be4cda96U,
  0xbef05335bef70696U, 0xbf1450de3eaee54eU, 0x3e03db89bf30af00U, 0xbee0a421bf00b21bU,
  0xbf0e56dfbcc35d4fU, 0x3e778751beae4eacU, 0xbd00564ebec002e7U, 0xbf0a68193d978558U,
  0xbe849a78bf2b4459U, 0x3c58b7943e68d55dU, 0xbddb20f9bec90debU, 0x3d01e8fa3e6c2cc1U,
  0xbec6b09ebf0b3441U, 0x3e8a8028bf11702cU, 0x3d10e6323e30cd03U, 0xbd8470fcbf0c3dbaU,
  0xbee8109ebf380aceU, 0xbefb4996be189effU, 0xbe929672bf00630dU, 0x3e48cef7bea5ec03U,
  0xbebd7c083e6d4b98U, 0xbcecda9ebe77258eU, 0xbf20fcc9bf0001c3U, 0xbe59c0153e6510fdU,
  0xbcf933eebf115abdU, 0xbee26f123cc48645U, 0xbf06818b3e3ab2a4U, 0x3e6ceca0be17b5ecU,
  0xbd3e63763d30b315U, 0xbe415cbcbc3f0de8U, 0xbe7834753e5a5390U, 0xbe40de333e0f977aU,
  0x3e1aebe2be19b11cU, 0xbda011a73d734164U, 0xbe7a741a3d771c0eU, 0xbeb66e233e758e58U,
  0x3e83c0f3be8c0bb1U, 0xbeec5534bf195bb1U, 0xbe7dc680bc3e035dU, 0xbebe99b3bda79cebU,
  0xbd79d87fbdf8b901U, 0xbed4f18cbe59434eU, 0x3e1e2d78bd938883U, 0xbc8d5296bd39c5d0U,
  0xbdf2d4f43dcf57c8U, 0xbe8dea963e9f9eb2U, 0x3b1b2514bd8232c4U, 0x3d7a21b63e309282U,
  0xbe7e3650be791ac9U, 0x3eb146cfbea7fa99U, 0xbebe224bbd68bd0bU, 0xbeb7c7203ea45936U,
  0xbeb8a3ea3e10ecdfU, 0xbe8ce1de3e4bfdb3U, 0x3eaa6cab3e221d09U, 0x3dd0149ebe468e76U,
  0xbe7adc713d5f394aU, 0x3e45c58fbdfbe999U, 0xbe8210893d1c012cU, 0x3d6849473acc573eU,
  0x3d7bb4fabe192179U, 0x3dfffb7fbe27f1e7U, 0x3df1bc49be63b4cdU, 0x3eaa58dcbd1f667cU,
  0xbe701b673c8c08beU, 0xbe7ac38dbd94035dU, 0xbd8ebd283d8df498U, 0x3e2fa10b3e70e473U,
  0xbe1f81adbe8ce9b6U, 0x3db5776ebe315509U, 0x3dc01d613ef24da8U, 0xbe3c9cb23e79f40eU,
  0xbda0e8ee3cb428b0U, 0x3e727c63befb4c41U, 0xbedcc691be549ab1U, 0x3eb68908becd14e1U,
  0x3d86c962be8d2e95U, 0xbf2e8cf1bf0e5c46U, 0xbe0f201b3d4fb621U, 0x3e7a0348bd0275edU,
  0x3d33b6573e0816dbU, 0xbeeee074be80feb9U, 0x3e99c7f2bea14f81U, 0x3e63a6eb3d7b8c09U,
  0x3e50b53abe3848f2U, 0x3da908a5be5b4807U, 0xbf0aef023d44ca1cU, 0xbd19c076bebfff8eU,
  0xbd1f1fc63e21ad9fU, 0x3e74e96a3c1bc508U, 0xbeb47199ba2fa92cU, 0xbecd0a3e3dff8cb3U,
  0x3ea9b7c1bf4299b5U, 0xbe69ae3c3dfea683U, 0xbf3ba4973e7237b5U, 0x3e34d877bf15f3ceU,
  0x3c0aa5103dcff64aU, 0x3d3f4a53bea66a77U, 0xbf173805bea84e39U, 0x3e707f5dbeb7937bU,
  0xbea503583e232c32U, 0xbdda23e73d3e85beU, 0xbd7a1be03e910aa1U, 0x3e30ed56bef8248dU,
  0xbf0e93d4bedbe555U, 0x3dba780a3dfb5958U, 0xbef08a573d413009U, 0x3d6a3ccdbe050057U,
  0x3e02976a3e7d621eU, 0x3de0d667bed1a615U, 0xbf15acc5bf14baf6U, 0xbecebc7abece7a8aU,
  0xbe8575aabf0b99f9U, 0xbf06005cbe2c2548U, 0x3e0c241cbe85285eU, 0x3dea21d8bee634e6U,
  0x3e1d0c57bf15ae3cU, 0xbe8213c03e0ad487U, 0xbf10374ebf0a2b93U, 0xbef381e0bb4a1077U,
  0xbee66b91be2d9ea1U, 0xbf347594be835f95U, 0x3d910d483db4f05eU, 0x3e5df7fabeb5b5e4U,
  0x3c1092d33d68f8e3U, 0xbeebdf633e42fa85U, 0xbecdadd7bebd9070U, 0xbec337e7bf02f025U,
  0xbf2f075e3e83fd2eU, 0xbf17b0d63e1d63dfU, 0x3dcc3de6be7a1d20U, 0xbe3b601abe6f8e52U,
  0xbef624283e2431daU, 0xbee91c4abeb8bdb6U, 0x3ebd2624bec7187dU, 0x3e187bf7be87a00dU,
  0x3e7093bd3e118371U, 0xbc4273d23e808fe6U, 0x3e2998793db9aa24U, 0xbf376d3cbf0e6ffeU,
  0xbe8556a53e5b97bbU, 0xbcd7f16d3e8c825dU, 0x3d9d71b0bd3fd9bfU, 0xbeb074413e6bc063U,
  0x3e0982623e1e3315U, 0x3e6321313dc16f89U, 0xbd740f60ba6c17b8U, 0xbdfddf7fbf0c56c8U,
  0xbf1981733db7df7eU, 0x3e46ae51beeeee6dU, 0xbdf9667cbb8fe19aU, 0xbf58e2f13e0e6f27U,
  0x3e8bed32bc45d067U, 0xbda64541bf0b58bbU, 0x3e2453babe7bd203U, 0xbecb2c79bd119bf8U,
  0xbf374149bd540597U, 0x3e5e9bd5bf21e5e8U, 0x3e43316f3e2c1722U, 0xbf285a5e3e5305f4U,
  0xbd82d4d9be8fd3cfU, 0x3e44f80bbe63a977U, 0xbe8519df3e1452f0U, 0x3e82b597be3d4947U,
  0x3e842b7bbf0e0990U, 0xbe54e3a23e17b9a5U, 0xbed49ff3bf1f3d01U, 0x3de16d4abda64bd7U,
  0xbe34f8d0bf1f3872U, 0xbf9d345dbea6a9aaU, 0xc0877bf23e0525e8U, 0x404db5f73f19a48cU,
  0xbfb53b933e46f66fU, 0x3f0209a1c009520eU, 0xbf9f331e4033b841U, 0xbf6aa4b8406fbad9U,
  0xbf96fc363f2cafceU, 0x3ea6f1afc0138666U, 0x3f9b9def3fc7a467U, 0x3eec9d653fc4cc34U,
  0xbfb8e023bf9a44ebU, 0xbe01aa694005d72fU, 0xbec83d13c020cb80U, 0x3f89d8063f6cc6adU,
  0xbfb92d4bbee207bcU, 0xbf45846a3f6df729U, 0x3fb69cea3f690bbaU, 0xbeb60300bff6b671U,
  0x3db08020be66203cU, 0x3ef53315bf5e690aU, 0xbe22ced3bfe43479U, 0xbf114f6dbfe4e050U,
  0xbfc45c4abf9b6f6dU, 0xbecc329c400df526U, 0x3ef1e07dbfe084acU, 0x3d9039a2bf63e119U,
  0x403aad593f52b38bU, 0xbf50cfc9403f7884U, 0xbf771ecd3f1676afU, 0xbef4e9cdbbceee64U,
  0x3f9c7196bfecb598U, 0x3fab9f8fbe9d6143U, 0xbf8ead99bf35f4a7U, 0x3fbf11b0bf57584dU,
  0x3fa9c534c00c447cU, 0xbfd0261e3fa64434U, 0x3eee3e363f2bbde4U, 0x3fede8d5bde71e96U,
  0x3ff6c7a23ffd4dfcU, 0x4017d3f5bf0dfc68U, 0xbfc09ab2bffe2d93U, 0xbf89a52fc008e583U,
  0x3e0f8c2ec018ee37U, 0xbf4f8f1540216880U, 0xbf3f21bebf4e2b6eU, 0x3f43521ebf069a87U,
  0xbff517c73fda88d4U, 0xbf7fddcdbfdadd6fU, 0xc004d5f13efa4c9dU, 0x3fb2c876bea04958U,
  0x3ff94e6fbfc6306aU, 0x402678bd3eef5b75U, 0x3ff9f584bef77cb5U, 0xbd74bd44402a84e1U,
  0xbfe4a3ad3eabb5f0U, 0xbfb919bcc0214f73U, 0xbfa7cfe7bfb2d1abU, 0x3f186b43c000faa4U,
  0x3ecbc5a33f9d23a7U, 0xbf95e287bf0377dbU, 0xbe7518d2c001e37bU, 0x3fa6683b3f99da20U,
  0x3ff4b2cfc00a862eU, 0x400d8098bf653036U, 0xbfc54edabfb5a6b7U, 0xbf889446400ef729U,
  0x40458e6cbe97b4f6U, 0x401f5806beaedaefU, 0x3e6304ef3fef2dd0U, 0xbfda1ca2bf84c0beU,
  0xbf0ddb053f0e4d83U, 0x400d6f6cbf1263beU, 0xbfb0be00bfd1e76cU, 0x3e66e6ab3f80f0d1U,
  0x3f0521b2beac0bd1U, 0xbf1fb4bebf8f59a3U, 0x3ec0a97b3f9d642eU, 0x3fa32eb7bf89bba6U,
  0xbf50ed11bf7a7822U, 0x3faab63d3fba4d4fU, 0x40639f4c3d9dfd11U, 0xc04f05dbbf29f9b1U,
  0x3f86d4aebed00a7dU, 0xbf4b75ba401004c2U, 0xbf8cebf7c006bb0bU, 0x3f35e0d0c0070768U,
  0xbf88a6c53f8540ddU, 0x40474b223ed0385fU, 0xbfd487fe3f89a2d0U, 0xbf1119f93f086dbbU,
  0x3ff6dd863faafd85U, 0x3fd5ffd03f564f5cU, 0x3e588725bc6ef8a8U, 0xbe8fe4353fb942b9U,
  0x3fb11e42bf90ee5eU, 0xbf2253ef3f853e11U, 0xbfc572753f91501eU, 0x3fc9fec0bf8d081eU,
  0xbf89f2a63f4357c8U, 0x3e012c87c00a4ed8U, 0xbfb99330bdbf4c98U, 0x40246c17bf79a0e6U,
  0xbfdc6de53fad8679U, 0xbf800823bf96a357U, 0x400e16a53fa89bf4U, 0x3f5aedac3ea7f3c0U,
  0xbf3e01df3efe10ffU, 0xbea021293fdb06aeU, 0x3e9a0f19bfb36ac8U, 0xbf9762003fc74b6bU,
  0xbf2b230a3faef85aU, 0x3ea74510bf8347fbU, 0xbf220e71bcb54130U, 0xbf207cf5be054150U,
  0x3e701782bd21f503U, 0xbfa0c86bbf88e70bU, 0xbf8b785f3f312905U, 0x3f23b0b1bebb3eb5U,
  0xbfb093d4be2729bdU, 0x3e89c8e93eb122d1U, 0x3f866ffabda0ab2bU, 0xbf927597bfc18957U,
  0x3fc0ffbbbe2cd548U, 0x3fadcffabfe049bcU, 0xbf13e2ddbf663923U, 0xc04d4f053e133aaaU,
  0xbf14d88e3f9cec72U, 0xbfdb400dc02205d1U, 0x3e0c88d0bf3c05a6U, 0x3f5574c1bfea309bU,
  0x3ff6250e4029b674U, 0x3ff701153feabd2cU, 0xbe264485bf96c6baU, 0xbf4b04fc40463f12U,
  0x3f3b5c1e3fefe933U, 0x3ee9c99fbfec1b60U, 0xbfa5bb64bf7a2ddcU, 0xbef05e493d4a36e7U,
  0xbf99df6a40365c78U, 0xbf4a8455c013125cU, 0xc063d632be92fc28U, 0x3fdc6a79c00769bcU,
  0x3e681d963fad9368U, 0xbf9ed2bf3faf885bU, 0x3feffaf9bf381e0cU, 0xbf62f444be9ec7c8U,
  0x403efd1cc0021006U, 0xc0144e373ffc8f42U, 0x3efca2eebef49bbeU, 0xbed4e1b93fedaf3fU,
  0xbe89746e3feed0a0U, 0xbc9c76b9bebbe373U, 0x3f65b731bf2d968eU, 0xc0115974c008b0caU,
  0xbfda66d23fb5e3f0U, 0x40128b4fbfbd874bU, 0x3ed4950c40049f64U, 0x3f8a05b03fd02936U,
  0xbf5848e23ed2a331U, 0x3e13aabebe8a5125U, 0xbfd55555c00848aaU, 0xc047fcc33ff2ee58U,
  0x3cf8fed0bfc914d9U, 0x3fb791723f87ea6dU, 0xbf1f978ebf8ef652U, 0x3de35de83fb51f96U,
  0x3f90cab53fe31d7fU, 0x3f86d6f2bf996eefU, 0x4021fe103deca3e3U, 0xc03cca25c02caf6dU,
  0xbcf6f0fbbf2a56aaU, 0xbf3d99c3bf52eb2cU, 0x3e5a65bc3fe717a3U, 0x3eebfe61be632838U,
  0xc01a78afbfd3ec7eU, 0x3f6df36bbf10f5a0U, 0xbfe16eab4031a9e6U, 0x3fb890693fb8d4f9U,
  0xbdc69f48bfcd26b6U, 0xbf92327d3fde6489U, 0xbec13147bf88bdadU, 0xbf2a8fb0bf8acc3aU,
  0xbf3186acbe5c9f7bU, 0x3fc58c4b3ea63e1eU, 0xbf82aadebf796bb8U, 0x3f87643ebd4eaeddU,
  0xbe79c0eabfccc772U, 0x3dbcdc323f93dc19U, 0xbfbdd5a5c015427dU, 0xbfb54aedc00f309bU,
  0x3f55ab8b3f59dfe0U, 0xbfd40c413fea65b0U, 0x403df6683f88a100U, 0x3d1424e3bf85871aU,
  0x3f6b869e404e63ebU, 0x3e9212e6bf038f13U, 0x3fe594c33ff2f9c2U, 0xbf3a0d7f3f241433U,
  0x3e4141a53fe91ef0U, 0xbf9320bb3f17e8f4U, 0xbfd666e0bf532d21U, 0xc0357e473f2b2b29U,
  0x3fdb034ac0573923U, 0x3fa583e0c017bd50U, 0x4005ed94c0236f66U, 0x3ff6384a4070109fU,
  0x3ea566343f6003caU, 0x40126932c003479eU, 0xbfdc93db402cd905U, 0x3f91ee264018f9bfU,
  0xbf5b8cff3f79da86U, 0x3f81db20bff43c9cU, 0xbd2a9183bec634deU, 0xc024ab9ac0164903U,
  0x3f6f6f9bbffcf84cU, 0xc0392b9ebfb3f8c3U, 0xbed74e69bf8857d0U, 0xbf9283ffbfbb67d1U,
  0xbede609b3e479d03U, 0x3fbe6b6b3f718d2dU, 0x3eb94c72bf9ef528U, 0x400d3d853f35f94bU,
  0xbeb678e43f0d21f9U, 0x3e50a28dbf640426U, 0x3f352a25bdbca3baU, 0x3e36174f3e2272e2U,
  0xbeb2d6a5bf90a50eU, 0x3fe0dc803fe4ccbcU, 0x3f997a293ff49b54U, 0x401fde923ec199c9U,
  0x3f06f4d3bef10373U, 0x3f876c433f9e75ddU, 0x3f08cef6400c9197U, 0x3f0f41f23fe2f7c7U,
  0x3f54c7693f8fbfd9U, 0xbf770e563f3cc861U, 0xbf6b9d72bea189c9U, 0xbef21c703f2ca93bU,
  0x405dcde3be527891U, 0xbf89ac90bea7156dU, 0x3f81601abfe1e107U, 0x3f9556b03e95bf95U,
  0x3f3131c0401a9fc3U, 0xbf34d85dbf4b29e9U, 0xc02cd073c01a08afU, 0xc0160f60bebfdaefU,
  0x3e9024a33fafcd55U, 0x3fb0c4c03ebf5dd3U, 0xbfa2725fc0133375U, 0xc00894de3f7e0a1aU,
  0xbf3fa3cdbf6f7310U, 0x401fa9f1400976d1U, 0x3fc197a0bfc0821dU, 0xbded3f63bf84c37aU,
  0x3f767eebbf2533d6U, 0xbfce9d95be2aa287U, 0x3b99c526bdaee5a4U, 0xbf9b55abbfc5db0bU,
  0xbfd7906dbe7fefe2U, 0xbf832312bf88d654U, 0x3eac2b4fbe9908afU, 0x4006de033eacf9d0U,
  0x404585a0bffa24c8U, 0x40259401bfbac882U, 0xbdcdce41c00ab4f8U, 0xc02ab6bf3f14dbd4U,
  0x3f32be3f40095167U, 0x3f3be0c6bf7338bbU, 0xbf893ce0be49a732U, 0x3f4269213eb00ff2U,
  0xbf23f156be7d57f6U, 0xbf79ce173ece2a1fU, 0x3fc0998f3e21d412U, 0x3f9747cbbf966a74U,
  0xbfc5b1a93f46b9edU, 0xc0077f00bd1f56c9U, 0xbfdc221a4096c91aU, 0x401efaec403abc2fU,
  0xbf488264bbe1f950U, 0xbf896456c01a987bU, 0xbff164a4c0059feeU, 0x400b05073f8654a2U,
  0x400563c4c0315f3aU, 0xbf3d8b483eb2e363U, 0xbf922bdfbf41ca1fU, 0xbe44af483ee7ef95U,
  0x3e0c3c8abfbb4406U, 0xc008f936becf28eeU, 0x3fd27f303f84cab8U, 0x3fac4b223d145bcdU,
  0xbe467bfd3fbc2990U, 0x3f7303ccbf0d6163U, 0xc02b7e49c007a76aU, 0x3fcaa232be671a1aU,
  0xbe8a8060beb74e1bU, 0x3f52a32b3fe9e3d1U, 0xbfab26ffbfe00c36U, 0x3ff2e582400d4588U,
  0x3f9449a23f78c214U, 0x3fe643dabed3c9f3U, 0x3f52ad56bf8243beU, 0x3f9f1a513f92736bU,
  0xbf57e966bd09073aU, 0x3fdd37ecbfaeb3b4U, 0xbe686f603f915c7fU, 0xbfed8cbe3ff76328U,
  0xbf2c283d3fe93140U, 0xbfe1b6d5bfb9a4f2U, 0x3f49172fbea295e6U, 0x400777503b5ac87dU,
  0xc033dfc8be79de8cU, 0x3fdd99c4bf9ccc55U, 0xbf2a442fbf12e146U, 0x3d98284d3f6818c8U,
  0xbf42a00cc020320aU, 0xbf94d6b63f1b9843U, 0xbf246ee13fd7cf90U, 0xbee86d0cbdba5a53U,
  0x3fb6c84bbf256bc4U, 0xbdb2516dbfaf1151U, 0xbf244acc406f59d8U, 0x401043f63f927306U,
  0xbfeb99a0402b8713U, 0xbf0e8917c008a5dfU, 0xc00461f8bfcde45dU, 0x3ef257303fb95e80U,
  0xc00e78733f8a3cffU, 0x3f04d4d04026529eU, 0x3ea968dd3e3a5565U, 0xbf4ebe6b3f6c5b8fU,
  0x3f7b160e3ea14395U, 0x3ecc53883eddb83eU, 0xbf7e32d9be7a9083U, 0x3fdf97293fb79738U,
  0x400db02abcc5098cU, 0x3fa0c81c3f7fe9fbU, 0xc02e60debecf3dc4U, 0x3f74d9693fffed44U,
  0xbfb8dee23fec146fU, 0x3eded51ebeaaf7feU, 0x3fd3b15d3e6cf482U, 0xbf034a073f5d55a6U,
  0x3fd37835be60efe0U, 0x4039af47bfb77aafU, 0x3f9476bfbfe13455U, 0x3fba71a8bf854e18U,
  0x3e324152c001658aU, 0x3f66bd51c03db698U, 0x40104b0dbf829f12U, 0xc02a9ad03f9f35ecU,
  0xbfb29ea5400ac537U, 0xbf9d49ac3fb14610U, 0x3e9051fabdc3d68dU, 0x40086e3dc004a64aU,
  0x3fc8e7803fa76df2U, 0x3d3ed0953e0176ceU, 0xbfb6272d40277d7dU, 0xbfe43c8bc0030c12U,
  0xbe1b19bdbd38b0e0U, 0x3e499709406045c0U, 0x3fc95cfabdce9a42U, 0x3d3cf078bfd484cbU,
  0x3ef1b1bfbf15bd7eU, 0xbea8fe503f1710feU, 0x3f200f25bf9dd42fU, 0xbe678b44bfad2c5dU,
  0xbcfec44dbf82be0fU, 0xbf4e476e3fe9d94cU, 0x3f6dfd713f1cbdd2U, 0x3f8ef090bfb1b208U,
  0xbeed1a683fb0bfd0U, 0x3f8707213ef1b5bfU, 0x40244ebe3ff2fa4aU, 0x3fbe1f45c0500ea9U,
  0x3fe57362401d94bcU, 0xbfcb71f1bfbec05eU, 0x3fe6f3b03fa6fdfdU, 0x3f48fad8bf940a8cU,
  0x3fb41b8fbf757a6eU, 0x3f94ccb8bf3a9711U, 0x3ba88f393f0ba947U, 0x3feffb583fda0ff7U,
  0x3f3f76bebf7bd423U, 0xc0244d463f852a5dU, 0xbf9567c74012e770U, 0xbf1ce6eb3fbb8ea8U,
  0x3fed3c1dbf7ad3daU, 0x3f97a6d9c045a7caU, 0xc00b855f3f909924U, 0xbfc2482e40093bbaU,
  0x40004f2e403f00cdU, 0x3e50e5fbbfd05ae5U, 0x3e663e973fef4be6U, 0xbf81087abfe98a15U,
  0x3f66426a3ff64faaU, 0x3ee3d7b0c0219578U, 0xbed4a4db3f98e1b5U, 0x3fc516ee40633526U,
  0x3fb5afb93f9aa5d1U, 0x3f8abca9bdd614fcU, 0xbfcde060c02fa83cU, 0xc0220c9cc0027bb9U,
  0x3ec826f2bf89b9fdU, 0xbeae1a093fb45313U, 0x3ec17b36404f7fc3U, 0x3f9bb12f3eec98efU,
  0x3fb963253cb797bbU, 0x3dfbc1a33fbd3433U, 0xc02c7e3b3f5ea2d9U, 0xbf84edd13f7b204dU,
  0x404c6c023f016c94U, 0xbfd7ff53c043303eU, 0xbfac13d13e07b7deU, 0x3f8447cfbf2b48aaU,
  0xbf4189643f584af5U, 0xbcf2ae30bfe95704U, 0xc01a38203fe225a0U, 0x3fd30e5e4052d0b1U,
  0x3eaa13d23f2a345dU, 0xbf88c02dbfc24bf6U, 0x3f6a5b58bf7d3a52U, 0x3fd59af9bfc9228dU,
  0xc00b29fb3fa74939U, 0xc005545bbe44cc3fU, 0x3fa24ee33fb4cbdeU, 0x4013c262bed5d7b8U,
  0xbd1a97c7bfafc683U, 0xbee9e458bf0d33b7U, 0x3f8699fe3fddafadU, 0x3f3c690b3eb04474U,
  0xbfae30083f63d68fU, 0x3fa1c76e3f516185U, 0xbf327de6c000055eU, 0xbec58a373f94bd0fU,
  0x4003aeedbf905e8eU, 0xbf07a0dc3f570d07U, 0xbeb9ae303f9e267bU, 0x3fa58df9be12e74eU,
  0x3f9a62cd3f3de4b7U, 0x3ef2e696bfc22230U, 0x3f4cd59e3f5b6b36U, 0x406a1d6ebf87f933U,
  0x40058227bf522495U, 0x3fc623b4bf00cba8U, 0xbf7dd9f2bf3615f6U, 0x3fa0bacb3f4c6495U,
  0xbfab5bf9c01d8c46U, 0xbe805c9c3f4757faU, 0xbf20c113bebe30afU, 0x3fc85ace3e31bea0U,
  0xbf520780be4cafbdU, 0x3f9172d23f7fa8a1U, 0x3f972d6a3ff7e98fU, 0x3f85032b3f89beb3U,
  0x3f978aa8bf7980a0U, 0x3f9d0dce40034b9dU, 0x3f5d59db3fe8605aU, 0x3fe103b83e83d559U,
  0xbf1c1086bf6043d2U, 0x3f0e760ec0022fb7U, 0xbf0c3cfbbfafc1b1U, 0xbf14ee14bfdad587U,
  0xbfa68250c0211a36U, 0x3e73d9a4400f268eU, 0x3fc4a578bfaf69f7U, 0xbe43b221beafb3c8U,
  0xbf1b81093f397ed5U, 0x3ea15118bf33baafU, 0x3f84d28e3f8a73b6U, 0xbfc6fe093d9af2feU,
  0x3fda199b3fe46236U, 0xbf5951dc3f28a829U, 0xbe1d6b54bd16959aU, 0xbe282acb3f471fcbU,
  0x3e71ff1abf80cb30U, 0xbfac6be33fe1a515U, 0xbe606db23fb7676eU, 0xbf2975eebf7a1a5dU,
  0xbeb3c4bcbd2cb663U, 0xbea3a1b73ebb0659U, 0xbe9fc23ebec05e23U, 0xbe5b406f3ebc6107U,
  0xbe340690bec3282bU, 0xbe51c2473de497c6U, 0x3df986d2bebc3ec9U, 0xbe825992bf27ac36U,
  0xbe0cb4fabed05189U, 0x3d3c702cbe283519U, 0xbe83b1923db5c599U, 0xbec8e279bde173aaU,
  0xbe33fbc3be66e475U, 0xbd03e849bef264c9U, 0xbe3b1a363e619ca2U, 0xbeca5e76bea937d9U,
  0x3c66f9bdbea2ea4aU, 0xbef128a03ee1612fU, 0xbda53600beb1d3f6U, 0xbe852bafbe077dbfU,
  0xbcfba25cbf264449U, 0xbdfb5d3bbdb413c7U, 0xbec03086bee7eeb3U, 0xbcc15a60be911997U,
  0xbf09a301be81f9baU, 0xbe596eefbe8765e0U, 0xbd38aa4bbe437f7dU, 0xbd23b967bf0c0113U,
  0xbef539f13e404691U, 0x3cde3595be659ce0U, 0x3d842933bf1b5ddcU, 0xbead5f51be65c5abU,
  0xbc6d695a3e2a1252U, 0xbd13aafc3e178819U, 0xbc262f5f3dc37030U, 0xbcfe3138be6ebe81U,
  0x3e36063a3b38790fU, 0xbe3833193d8c717bU, 0xbc4538db3d60f66fU, 0xbc94b2aa3dbb6e94U,
  0x3db50c2dbc5dbb3aU, 0x3e4e5523bce5980fU, 0xbd325a26bd9aae5dU, 0x3e0b30773e0dbdd3U,
  0xbe0148d63e248650U, 0x3dec67c93cf61f0fU, 0x3c8e9e2ebd734619U, 0x3de772173da9306bU,
  0x3d592d793dfde5b3U, 0xb99739593def7358U, 0x3e22d9713d72499fU, 0x3dbb1b71bc9dc45cU,
  0x3c4060c83bd02535U, 0xbd886b0bbdcc9e15U, 0x3d812ea2bc04d174U, 0x3e0b33a4bd922bdcU,
  0x3e3e14ad3d93e1c8U, 0xbd8b7f13bcfe4947U, 0x3c1d5a483dbe0e6cU, 0x3e3e20a53d66cbb3U,
  0x3d35b49e3bb5434dU, 0x3db796733b274833U, 0xbdd80c2b3de2ab20U, 0x3df0add63da40c76U,
  0x3d7ac3a73dc00686U, 0x3df10bb23df15333U, 0x3d8654d4bddb27b4U, 0xbe04b68abdf337c2U,
  0x3dd39d3d3d3c8d2fU, 0xbe1f0fd2bdfee914U, 0x3de4ab903c331f83U, 0x3e1b2bea3e1c2d89U,
  0xba6c84c03e15fd71U, 0x3e3a07c4bd0e7597U, 0xbe5255a53d34ede8U, 0x3e0802363ddaf942U,
  0xbdda6c1e3cac1472U, 0x3dcd8043bb5a4ffbU, 0x3c51ce1ebde2c790U, 0xbaf0fa87bd1b1128U,
  0x3cdfacac3bed2515U, 0xbd33346cbd65fedaU, 0x3da836b73d29ba09U, 0xbbf1ba703e05d00bU,
  0x3d8f0d7e3d911bceU, 0x3db4faa2bd3368b6U, 0xbd6597303b5217a7U, 0xbba8716d3d8385b1U,
  0x3e0254cf3d238829U, 0x3db8d8e43c8f5c3cU, 0x3da6aa253cb6b01bU, 0x3debea7d3d1ad360U,
  0x3e5340e33d6b35c8U, 0xbc98394fbc110f60U, 0x3c74715c3d8dcd4aU, 0x3dcba0933ac944dcU,
  0xbe11fc4e3e00169bU, 0x3cd22857bbb8bae7U, 0xbdb009d5bd29acbdU, 0xbe1647913d407224U,
  0xbd2793203dc15adbU, 0xbdb26baabd4ebef9U, 0xbca49085bc9324c6U, 0xbaa991ca3d831be9U,
  0x3e1548a13e08d3e9U, 0x3c98e640bd4d21a8U, 0xbe147957bdc785daU, 0xbce637a9bc3ffd89U,
  0xbddc90cfbd32dfd0U, 0xbd2ca92bbd81448aU, 0x3d8fc3ffbd9b77b0U, 0xbc8b1995bde79dc5U,
  0xbc7a24c6bdfbf290U, 0x3c3580503ce98f73U, 0x3d0e7c383df3fff2U, 0xbd1b325c3cacffd6U,
  0x3c7988a6bb6a6d7dU, 0xbd20927bbca0e433U, 0xbd8c153fbd62e074U, 0xbda4b4c0be0c9ee5U,
  0x3d31192c3d041b52U, 0x3d715f7abccff900U, 0xbdcb077ebbc2070eU, 0x3d95e6d9bdbe5676U,
  0x3e0c81803d2c6335U, 0xbdcdf114bb535680U, 0x3b680ea73cff5d6cU, 0xbdc617ab3dde0751U,
  0xbe2b8a36bce11d57U, 0xbab7bbf83e261295U, 0xbcb6d397be5ce760U, 0xbcc4fcfcbe215380U,
  0xb92a0fbabdc6d3fbU, 0xbd16290fbd856d50U, 0xbd869f05be0d3c79U, 0xbcad49133dd3c643U,
  0xbd4baccc3d617fa1U, 0x3e194a9f3c8d3b15U, 0x3ba268cabe141954U, 0xbdd4d4033d1c5da2U,
  0xbdf240103d7c2b21U, 0x3dfa2f4e3b9808abU, 0xbc8b3c59bdc30da5U, 0xbd3318eabd85278aU,
  0x3d2c4c843d07c8bbU, 0x3ddc4ad8bd63241eU, 0x3e10e19a3e5589d7U, 0xbddafc313d386c17U,
  0xbc87d506bdafe898U, 0xbe169f34bbb5dcd3U, 0xbd7e53ffbe1ba86aU, 0x3df4307ebdf65db1U,
  0x3d486c0d3b920bcaU, 0xbcdab2a5bd24e9fdU, 0xbcb92c52bc87d1c3U, 0x3e3445e5bd0176f6U,
  0x3e4c010e3dd5f290U, 0xbdc9a899bdb3445cU, 0xbe1b5cd6bdf23721U, 0x3de234ce3d7f0e0fU,
  0xbe3752e03d737c84U, 0x3b342f563e1edaa3U, 0xbe55f290bd79f087U, 0xbdb41a55bd991419U,
  0x3cebd0cf3cade2dbU, 0xbe3a6a243d650c09U, 0x3dc7a586bdf1e12dU, 0xbe2cb1e83cbb6363U,
  0x3e14d0a4bdb70e87U, 0xbd90a1fdbdfd0553U, 0xbe2bd75fbcee011fU, 0x3d0b6f1dbdfe2264U,
  0xbe0f1a333bfb6516U, 0x3d50e43ebdd75ba2U, 0x3e25fa25be27142aU, 0x3d08124bbe07d656U,
  0xbdb6025dbe53ac38U, 0x3e0db932bc16d0eeU, 0x3d99531a3bc6969eU, 0x3d292ff13e01af42U,
  0xbdb3227fbcf070ffU, 0xbd2bb986bd13b9b0U, 0xbe249bfabdccca7cU, 0x3cac665f3d7722efU,
  0x3e45fa323ba1c7eaU, 0x3ccef19a3cb9f5c9U, 0x3ca9a068bdf37eddU, 0x3cd2dda13cdaa468U,
  0x3e42b3e93dcee2bfU, 0x3c25f2073ce8ce9cU, 0xbce0debfbc5c376bU, 0xbce4fec6bd7a4786U,
  0xbde6c2e73dd9ff79U, 0xbc7496f5bd9bea32U, 0x3d940d76bc66bca7U, 0xbd9f90063d52e219U,
  0x3ceb0b06bc6c641eU, 0x3c2bbe5c3d20cc2cU, 0xbe276a78bcb0af13U, 0xbd5024d7b8b075fcU,
  0xbd2e96b9bcccb88cU, 0x3d84582d3db81b93U, 0x3c944f3bbd350de2U, 0xbd8edaa8bd7c1176U,
  0x3d2b38e1bd6b1bf9U, 0xbb2f024dbe032e5aU, 0xbc6bd214bcd07e08U, 0x3cb3e4adbdf059c6U,
  0x3ca679793d0fc4ceU, 0x3e15224d3c973546U, 0x3d5e4c9fbc3483c9U, 0x3cf300aebdd5bcadU,
  0xbdf084aebe031dc2U, 0x3dfb213dbd9532d9U, 0x3da7457abb767683U, 0x3b8ca9a73dbb8b5eU,
  0x3df52eefbcf01b1eU, 0x3d05b0f9bcb188dcU, 0xbdd64f47be181448U, 0xbd2341513c473ee0U,
  0x3c87d9593d55b29cU, 0xbcbff1f9bd8c5f17U, 0xbd6585d2be0396a0U, 0x3c77f965be283d09U,
  0x3d9a8b283d4d8ff7U, 0x3da05dd6bd8da3e2U, 0x3d5a788cbdb0d6d0U, 0xbd1a2ba2bd0ad942U,
  0x3cdfb08e3d914a22U, 0x3d9ffa8dbe2567a7U, 0x3c50e8d53d8c77ccU, 0x3d4365fa3cb44b3fU,
  0x3cabde8abc1d3d26U, 0x3d372136bd6d2b21U, 0xbd5df091bd10c4d3U, 0x3d3ced2a3d7acbfaU,
  0xbe36e8aebe2d1148U, 0x3ab61160bddfffa0U, 0xbdcacb62bcc28590U, 0x3c8a7a2dbde4315aU,
  0x3d5317be3d7d90baU, 0x3e6a6958be330ef8U, 0x3d2919e7bd253137U, 0xbd147caa3cd8dbddU,
  0xbdaf54913c50dccfU, 0xbd93663e3d866757U, 0xbe0625dc3d0dd052U, 0x3b447d36bc90b25dU,
  0x3bf446a53d979f0cU, 0x3db16d77bc07ee55U, 0x3c962f80bd925df0U, 0xbdc055f7bde48afbU,
  0x3da641c73cc84159U, 0xbc68c6673d119219U, 0xbcdf24f4bce37673U, 0x3d1269f9bc89e008U,
  0xbd82daecbd9b5c28U, 0xbc6764b53d2a742cU, 0x3ccaf0743d78921fU, 0x3e2658673e1c1df7U,
  0x3ded1072be29f358U, 0xbdcf6183bd91d724U, 0xbbdc879cbcd7bc89U, 0x3d122f0ebd861bdfU,
  0xbd35fa553da39dddU, 0xbc8358863b410987U, 0x3da338b13d74ed29U, 0x3d93794a3d221a7cU,
  0xbe78b7bfbe0c901bU, 0xbb84621dbd182f84U, 0x3df3b00a3e570141U, 0xbd85e26e3bd857f0U,
  0x3dc693973e06afe9U, 0x3c867da1bdad680dU, 0x3d65cc2e3da52df1U, 0xbdeaeccdbc53972bU,
  0xbd86ba343db921cdU, 0x3d62f665bbc59d5bU, 0x3cb7bd12bc491f2fU, 0x3cebe59d3d9a3a9aU,
  0xbd91b2acbe01d073U, 0xbdaa20eabd99c403U, 0x3ccf68443d83e4f1U, 0xbe206c49bde7be1cU,
  0x3bf9149ebd909959U, 0x3db207b3bd179bc2U, 0xbd71ec9e3dc390d3U, 0x3bca3c273d514b51U,
  0xbd72d584bc6498cfU, 0xbd8cd8723d67b15cU, 0xbcd69742bc925196U, 0x3e5ca823bd18bf47U,
  0x3e1eaa27be078cfeU, 0x3c5ebafabd521202U, 0xbcf928c8bc0a4689U, 0xbd6e18783d4c5472U,
  0xbe54f58ebdd84797U, 0x3d300d903bb48eabU, 0x3e0be7423e43824eU, 0x3d772a11bd965178U,
  0xbe08d6c5be26b20cU, 0xbd2121abbd57f0b6U, 0xbc9ed7a93dd8d31eU, 0xbd881db7be16cc4fU,
  0x3c5168713dbb2a56U, 0x3de6366d3dadcd64U, 0xbcf9a796bd9b3e39U, 0xbd7b00a13d4d90c7U,
  0x3d96acd33d9ed4cbU, 0x3d5f635bbe760bb7U, 0x3debecf23c941e29U, 0xbc0d7375be00e3b7U,
  0x3da028c23d42042fU, 0xbdaf5828bd4428bfU, 0x3c95fdb83dd7c07dU, 0xbe523fafbe003708U,
  0x3dd14f99bda9a84dU, 0xbb9b3d273d903fdfU, 0x3dbebda3bd0b17f1U, 0xbd8ad1f83d401c7bU,
  0xbe0b7bd53c666a7bU, 0xbe2a1612bd7290caU, 0xbd284572bc0b111aU, 0x3dd5dcb93e182adeU,
  0x3d3c2396be0ded68U, 0xbcc90e82bdabda3cU, 0xba30fa2bbd722bdaU, 0x3c651b39bc930b9cU,
  0xbdf7528c3dad013cU, 0x3daa72d33dcaf982U, 0x3e0c290f3db23deaU, 0xbb77d83a3bf8b5aeU,
  0xbe3afa5b3d4391b5U, 0x3d2539473d18a97aU, 0xbd80fdab3e280af6U, 0x3d9871603d588569U,
  0x3e0ab1c6bd66bb46U, 0xbe065c913e0a0d43U, 0x3e42ef59bd5cb863U, 0x3d88f9e0bd73e195U,
  0x3d439a233c932d0aU, 0xbd2af1073c81dd7fU, 0xbd5183dc3de6288bU, 0x3d9dcd553daf282dU,
  0xbe24ef7c3ddc22e6U, 0x3be446a63c00447eU, 0x3dbd3a063d3c3390U, 0xbe14e01abde981adU,
  0xbdca849f3c53797aU, 0xbdff18babe10b5b6U, 0xbdf27e1d3d3533feU, 0xbc8db4183cecd254U,
  0xbdf74b8abd86cf91U, 0xbe3275abbd2d72f8U, 0xbd21b510bdc99f56U, 0xbd0bae6b3d820ef0U,
  0xbd94f6a13c103f7aU, 0x3e641bda3d02a03cU, 0x3d2dd4423debbc1aU, 0x3ba0367ebdf5ea8bU,
  0xbe9c6f07bdea3341U, 0xbea1997bbbbc11ccU, 0x3d57ba0d3ddcd454U, 0xbd2b82c6be2380a3U,
  0x3c354eefbe3b5415U, 0xbe018665bd8c5688U, 0xbe0227813e4083efU, 0x3c975e313d18f464U,
  0xbcb114a7bd0d6807U, 0xbe0e12b23dfaafe6U, 0x3d1c32053cd23051U, 0xbd427301bd91278cU,
  0xbd8739d2bd3d891fU, 0xbd25b9b63d7d5624U, 0x3d57f6433da80ea3U, 0xbdae5f22bda1f98aU,
  0xbe0f4511bdfa9a9bU, 0xbd4f34d6bcefa8c8U, 0x3dd044bdbdc121e5U, 0x3db2a80b3d5a5f31U,
  0x3db5d535bd840feaU, 0xbd158d15bd53bf27U, 0xbd78e5ea3d7443f1U, 0x3e27773a3dfe2436U,
  0xbd4568c8be1dfa1cU, 0xbcce68b9bdac3b5aU, 0xbdb79a53bc614143U, 0xbd3868d4bc716059U,
  0x3c477f4b3d62b0a6U, 0x3e0af8793e069fd2U, 0xbcdfb223bd4382e3U, 0xbd40b16abd8f1310U,
  0xbe18d0c43daad713U, 0xbce9da32bc9d2905U, 0x3dd566c53d3ece4eU, 0x3d065affbdb2b550U,
  0xbde387563dbdbae8U, 0x3d92ed98bc5ecef6U, 0x3cee53303df8809aU, 0x3d34a07b3cbad52cU,
  0xbd0178623c9743b3U, 0xbd45afba3dfc6202U, 0xbdfb42f93dd80a1cU, 0x3d3fca33bd9fc29fU,
  0x3db9780a3dca8defU, 0xbdfd59debd48b81dU, 0x3a669b123da40ff1U, 0xbd940de23cc4198fU,
  0x3d751e80bb7945abU, 0xbdd25131bd4bd095U, 0x3da17385bdb3f440U, 0xbc5ac3a63de4cf9dU,
  0x3d0cc905bdc98f0dU, 0xbdbd838b3b527f95U, 0x3dfdbafabdc418ebU, 0xbd11ef043d2c515dU,
  0x3d5ac347bd939656U, 0x3da44f81be22f6a8U, 0x3c2b37183a291b87U, 0xbd55cf4f3d2f662cU,
  0xbd2741f5bdab4a12U, 0x3df13a353dd273daU, 0x3d8c0dcc3de8f998U, 0x3be83120bcbedb44U,
  0x3bc43bfa3da373f2U, 0xbd5c1d683df92482U, 0x3d1f28c6bd453d2dU, 0x3cb565c1be0e1254U,
  0xbceb6285bd915e86U, 0xbd3fd29c3d644a83U, 0x3c9d32aa3d3f343eU, 0x3ddc164abd02340fU,
  0x3d6891bbbca9b3acU, 0x3da8a1ff3de61a9fU, 0xbd3ab3c1bd751e73U, 0x3d946cb83dde158bU,
  0x3c2c8a333dc2b193U, 0xbd10c02dbd6a4303U, 0xbcd2b8d43dd61417U, 0xbd660f11bd8e73bfU,
  0xbd880f643dc26f17U, 0xbcdb3cb83d57a8b7U, 0xbcf3ca31bcfbf9e3U, 0x3e337ef43c45c676U,
  0x3ded71c0bc8b59c5U, 0xbe093181bdc45618U, 0x3d80512abd927629U, 0x3e0adfd03e0655b1U,
  0xbd84c136bd2fd014U, 0xbde7350bbd2010d7U, 0xbc879d303d0ca67fU, 0x3e13fff4bda33050U,
  0xbe0ceb5b3c965706U, 0x3d999ed73df2ff35U, 0xb916ad0ebb4239aeU, 0xbd42df26bc6e9d58U,
  0xbdbcb7cf3e044726U, 0xbd85eae13e1571d7U, 0x3d8e138abca3e58cU, 0xbdd40be8bd74b0a3U,
  0xbcfb0b4b3e071aaaU, 0xbd8b80d0bda59605U, 0x3dae5132bdd465ebU, 0xbc5102483d706a2fU,
  0xbdc95b193ddf1d3cU, 0xbdd356893daf80a2U, 0xbde128803d4deb7eU, 0xbd101c3f3b902af4U,
  0x3df614583df29026U, 0xbdd070503c74404bU, 0x3dcd7eca3df15435U, 0x3c619de3bcc1fe38U,
  0x3df9024b3c40d125U, 0xbc19d1fe3c1747cfU, 0x3dcae8ac3db6744cU, 0x3e38f027bd800feaU,
  0xbe0c5d43bda47419U, 0x3ccb3fa9bd7b0904U, 0x3dc1169b3ce29cadU, 0x3cf5d6573d1e3050U,
  0x3cf60b8abd4c7d06U, 0x3d209f6dbe059437U, 0x3de2da443e806d36U, 0x3e0ca5fe3da33698U,
  0xbe45965f3e10069aU, 0xbd2831a8bd01e854U, 0x3d8b4ad63c3ac57fU, 0x3dd194793c58e47bU,
  0xbc851b193e025c56U, 0xbe32dc2ebd3411e4U, 0x3e40b36dbc830024U, 0xbd82a207bde9a742U,
  0x3e2e6a5c3d8fa193U, 0xbd112d1cbc2d7091U, 0xbdf8bbe0bdd1ed76U, 0xbdbe41d4bcb9e25bU,
  0xbda698da3e31592aU, 0xbca2d14a3d6f4660U, 0x3db183593d8fe60cU, 0xbd3258d8bdc3d500U,
  0xbdc4335fbcc7fb25U, 0x3b7822f03e0e0e53U, 0xbccf8e26bc1da66aU, 0xbddc944a3d7e09abU,
  0x3de25c753d1cd6fdU, 0xbde80cd7bbac649dU, 0x3e154a7b3d25e69aU, 0x3e9120763d3206cdU,
  0xbe1a5609bded265bU, 0xbcf933cabd9e546bU, 0x3d9eb612bd8eb5beU, 0xbd4493f63bdbb066U,
  0x3e21d8563d30020cU, 0x3da48ab53dc9fac5U, 0x3dfa38f23d5f8e97U, 0x3ddb19a53ca5d201U,
  0x3e3e3813bba00990U, 0xbb5dadfbbd2445d6U, 0xbd8a4e4b3d944300U, 0xbd0888423dff912dU,
  0x3d9c3e33bd89fe43U, 0x3d6258fabd8510e0U, 0x3d48ccd1bc65422cU, 0xbdd4c0903d4f2bcfU,
  0xbe1ab4753e0dee0bU, 0x3bd5876b3e1517b9U, 0x3cabb65bbd9a13dbU, 0x3e07addabcb7cd1fU,
  0x3b7829563d8d9b37U, 0x3e26b9303d7b6749U, 0x3ce036ae3d9547f1U, 0xbc6ed564bc5015d3U,
  0x3dacb0f33bbee4bdU, 0xbd30b4973c788829U, 0xbcf10d9e3db05cd4U, 0xbdc2c1fe3d80620eU,
  0x3d2c352c3d3a64eeU, 0x3bb5e6b63c60fd18U, 0x3d136a49bccead70U, 0xbdb044163e201807U,
  0x3d8632e8bad83f7cU, 0xbd03c8ae3d07a212U, 0xbd9ba75ebcd123a6U, 0x3d35170c3c92b773U,
  0xbcc29a693c885075U, 0x3ccda5d53c9e9197U, 0x3e0dd835bd8cd593U, 0x3dbf8e793dc9c3d0U,
  0x3e05c2f43b7a487eU, 0xbc47cae63dc9ab53U, 0xbd2ce5383d8ff8f5U, 0x3b6523343d9373b4U,
  0x3c783c4a3da3ef3dU, 0x3e1b39c3bd77bd91U, 0x3db8d9c13d1bf28fU, 0x3c6b55bf3bbf7ad7U,
  0xbd6b5df23dc3c0c3U, 0x3db638d83d80a652U, 0x3ce8e2e63d79152fU, 0x3d8515543da2052cU,
  0xbdc40a813d49ab4aU, 0xbd28e8653d82d9faU, 0x3d324fbebd5a8002U, 0x3d12058b3c0ec215U,
  0xbdc477f53aa32b1aU, 0xbb94d9f7be479719U, 0x3aafc33a3a186bacU, 0x3ca09ce5bd4520e7U,
  0xbd06193c3ddbca05U, 0x3bf7a9223d24876bU, 0xbd82eea63de032f7U, 0x3c4bff723d43dcd2U,
  0x3dd365693da141b5U, 0xbd80742fbce478bcU, 0xbd8367683d8ce5e0U, 0x3d6b21d1bb8b783bU,
  0x3c56ea07bc9f0144U, 0xbdb861693d85f564U, 0x3da3f93abc4b7095U, 0x3e1375893d2b7bcfU,
  0x3ce7ea03bddf33f7U, 0xbe03b0d73d9be838U, 0xbde76677bcf21776U, 0x3dc21c253db5cd3bU,
  0xbd7fcd6a3da8843dU, 0x3ca85aea3dad6b03U, 0x3c6269b0bd1762a3U, 0x3bbd072dbd162c8fU,
  0xbd92b8973de311f5U, 0x3d2ac6a43db40ac5U, 0x3c5ac0583d8f76e0U, 0x3dd0516a3d22583aU,
  0xbceb1f92bdca4532U, 0xbd01ab49bcd00b28U, 0xbcf526993dce1761U, 0xbcc6042e3ca56fb7U,
  0x3ccaed573ca28eb3U, 0x3c50cff4be7df5ddU, 0xbd7df96a3ddb2ed3U, 0xbd93a323bde2b08fU,
  0x3d8118ac3daf210bU, 0x3d1bfaf3bddb4d0fU, 0x3b233cf93e1d56a7U, 0x3e2fb8153da8cb1bU,
  0x3db6084a3d6394d6U, 0xbd0e52f83b55b464U, 0xbd7a814a3d87b926U, 0x3d60b1e03ce91c9cU,
  0xbd7f3f663db6e0beU, 0xbcbb86b93d8eeb6bU, 0xbd3341eebd9af317U, 0xbd433ece3d97c0c2U,
  0xbd8903a93d92f7a7U, 0xbd93912cbda44b02U, 0x3d4e73cebd232ce0U, 0xbcd546aabd6f66b8U,
  0xbdb0caa63d44285dU, 0xbb78591ebd1f6d1cU, 0xbd9c5b153c9af173U, 0x3d401301bc8c74c1U,
  0xbd784593bc21d403U, 0x3ccf158cbd08766bU, 0x3d8b716a3d9c96fcU, 0x3da3d1b5bdedeec6U,
  0xbd6901e1bcb33072U, 0xbdb89b36bdd7bff9U, 0x3dad7566bd562042U, 0xbd927c58bcf99623U,
  0x3d62fb36bd681696U, 0xbdaf25acbdaf2b48U, 0xbdea7f28bd50a509U, 0x3d8aee20bd8d91fbU,
  0xbc1c4ef33c4857deU, 0x3dd434bbbb539bf6U, 0x3db8e7fa3d8cc5deU, 0x3cce33b33df883fcU,
  0xbd3c153c3cbc1ad6U, 0x3c65b85fbd8dd70bU, 0xbdd5b66bbca2c925U, 0xbdaa0c64bcb3f3ddU,
  0xbd87a39e3d1f3d22U, 0x3c8f4c433c71d74fU, 0xbd120ffbbdbce07dU, 0x3c2204e1bdb774caU,
  0x3dc65368bd819d54U, 0xbe4478363c89403fU, 0x3dc80eadbd85b7e2U, 0x3d02b137bd534f8aU,
  0x3d9af7c53ced20dcU, 0x3d8dc0ad3d11fd2dU, 0xbe04deebbe10b149U, 0xbda5d91bbd287f5eU,
  0xbd99f0b93d2d32faU, 0x3d61f6dabba3bf41U, 0xbdaa8398bcb51714U, 0x3cd566713bdea839U,
  0x3d89d68a3cb10fdfU, 0x3d6ddd463d0fa4ebU, 0x3df969343d73deecU, 0xbdc5ceaabe104610U,
  0x3d7388afbdc1f356U, 0xbd736979be0cb5bdU, 0xbe18b11abc6781e4U, 0x3d68e27bbe2c5f68U,
  0xbd2f802cbd4303d4U, 0x3e049ad4bc906ebaU, 0xbcd919c73d16ea12U, 0x3d0948dd3d6ea471U,
  0xbce83a63bd1f4da1U, 0x3d0a0d60be024e88U, 0xbc8ca707be566ea9U, 0xbd54f86f3cc7c994U,
  0x3e05b0af3d94d8dfU, 0x3d69d39dbde7399eU, 0xbdf632c0bd00b50cU, 0xbe204cb13d08d21fU,
  0x3c5f2f54bb3bb0cdU, 0xbd6a2a5fbb641dc8U, 0xbdb469d7be2cd407U, 0x3d4ac848bd18bb62U,
  0x3e4c83dc3d98baeeU, 0x3d80a63fbde00e51U, 0xbd7678cdbd67cbeaU, 0xbdc82941bdb8ec67U,
  0x3d53d12e3dcbad17U, 0x3d00d399be1d39bfU, 0x3da60c16bd9605abU, 0xbe68d429bdc03731U,
  0xbdc77b73bcf9925eU, 0xbad1b3af3dfeb4e3U, 0x3da386153d894a79U, 0xbd1dab2bbdd10142U,
  0x3e0f079abe15ab07U, 0xbdfeb1cd3df4bf54U, 0xbe22bf7cbdd8efb2U, 0xbcab9e823dc5c4fbU,
  0x3dcc1ee1bd7689ccU, 0xbd8117cdbddb047cU, 0x3cc58116bd8d34abU, 0x3cbb10f6bdf638f2U,
  0xbe57175abd82fc7eU, 0x3cfbf5c83d552fe1U, 0x3d0d338fbddc6860U, 0xbc6edc5bbe103a62U,
  0x3cea8fd83e1446caU, 0xbd3f2cc83df7264bU, 0xbdb453713d75a986U, 0xbe39d02fbe2790beU,
  0xbc50084abc369e12U, 0xbdc00bd9bca96ac8U, 0xbda83f8d3d8b536aU, 0x3d4477863c691d34U,
  0x3e292cef3d7d5b0fU, 0xbd647d8dbe2c4896U, 0xbe70b611bd531015U, 0xbd1db1da3bfb02a5U,
  0xbdacf0a4bc9e4957U, 0x3e0f26013ccb30b8U, 0x3e1cda80bde89681U, 0xbdbd542e3d52cdfcU,
  0xbe514100be17031bU, 0xbdd06f9abd5238ddU, 0x3deb9128bc320acaU, 0x3d4cb2b1bddae9b2U,
  0x3d7b8369bdc41345U, 0x3bcb8ec23d4cb054U, 0x3d64a8783d3dc272U, 0xbd868894bc10ab91U,
  0x3d9169c53dc1f5d1U, 0xbdeaf5153d575f7dU, 0xbd8db8f6bd80ca47U, 0x3dc276bebd1f5cc3U,
  0xbe300fd7bde38994U, 0xbcb21214bd9ed869U, 0xbd2180043db231b9U, 0xbe0b64fdbda7d39eU,
  0x3ce20e013db38c90U, 0x3d4e5cb13e199c76U, 0x3ceb05c33e16e6b0U, 0xbda60c05bd8cbd41U,
  0xbdc421e3bd6ae6ccU, 0x3e07b9b13db09245U, 0xbd865c94bd5a57ecU, 0xbc97f3873b8e9b6fU,
  0xbce28bbd3d5234b5U, 0xbd919ffbbd6fb4d8U, 0xbdb6eb9f3dc78580U, 0xbe08c893be1267eaU,
  0x3dc716c73e032863U, 0x3e42db403c958f64U, 0x3cb6fd74be26d4caU, 0xbd360b3e3d12fcb0U,
  0x3bff1b41bc93212bU, 0x3e045a563d2cd772U, 0xbcee46603c3af1d3U, 0x3d696afbbcf7e6e7U,
  0xbc55aa78bd95541dU, 0x3d21b3ce3dcbaddcU, 0x3d6ecd843dd0abfdU, 0x3d331fe23abdff3dU,
  0x3dc10c073d0dfa06U, 0xbd4e8ed43d89b0a0U, 0xbb76a2bd3dd5b4b7U, 0x3d8c0ceb3d2fa52cU,
  0x3d88f7783cdc9459U, 0x3d536d91be04dbedU, 0x3d4065e4bd8d21ffU, 0x3d8c20e5bca6c4bbU,
  0x3db77c423e26630dU, 0x3dc74bd73e016b41U, 0xbb2d782bbcf154bcU, 0x3d95ac26bdd8e1a9U,
  0x3dabb224bd2571ccU, 0xbc6129873da8fb91U, 0xbceb9750bd9e35a8U, 0x3c1958dd3d2099b4U,
  0x3dcbe407bd909ae2U, 0x3d5795a6bc9832b5U, 0xbe551b28bd525ebeU, 0xbdacdaed3cfa4648U,
  0x3d6b102bbdbeabfaU, 0x3d6a9a643dafc611U, 0xbcf05bbf3d664990U, 0x3d0548333d1c8e9dU,
  0x3d58c81abbe05ec1U, 0x3c8a0df4bd782898U, 0x395c4c1d3db6260aU, 0x3d9bf2fa3de7fceaU,
  0x3ceed68b3d70ea5dU, 0x3d5499c4bdb9af33U, 0x3d9d34dcbd400064U, 0xbdaf7d23bda81999U,
  0x3da60ff03d681180U, 0x3d54802e3d3cf5ceU, 0x3dd9ebf4bd8fcbcbU, 0x3dca974e3dff15aaU,
  0xbdcd4f4bbdc6002aU, 0x3ce4784a3dc63216U, 0x3cf6cb693d6572f1U, 0xbb0bd5503dea45a8U,
  0xbd760ff33d88ae72U, 0x3d800912ba1a9eb8U, 0xbdba311dbd914e38U, 0xbca404a4bdb80c4aU,
  0xbc2d7b6dbc2b89edU, 0xbdc85634bce4a51fU, 0xbcf9fc683dbc56a0U, 0xbdb58e79ba8d9469U,
  0x3c3f67963da9bcd2U, 0x3dac8c34be7c23feU, 0xbda353573db1bd4fU, 0x3dd83563bd23fb6bU,
  0xbe0eef5bbb57320fU, 0x3e5b40453d15d3a9U, 0x3d74a426bddbf996U, 0x3aebf6e03cf5c7d3U,
  0x3e1586f53a850649U, 0xbaf434863b818736U, 0x3e44cbcb3cace862U, 0x3cc156453e3ff987U,
  0x3dbbf82d3e0769a8U, 0x3dd76f9ebe1fdecfU, 0x3cf0925b3e0a69dbU, 0xbd895f943dee1e2cU,
  0x3cec8237bd65dc16U, 0x3d706535bd0837aeU, 0xbd6358b73d586e8aU, 0x3e0bc7eabc5ac656U,
  0x3dc5b5fabdb21d33U, 0x3d8bc2b13dd1cfd6U, 0xbe3a2e0d3d38d2c8U, 0xbd17234dbbecc7f2U,
  0x3e20739dbdd6fab9U, 0xbda5b078bcb43340U, 0x3e30342fbdba096dU, 0x3deb7b8cbe36d39fU,
  0x3d1e1f1abdbd23d9U, 0xbc8aac3cbd0c18feU, 0xbdbc70ff3d0220bfU, 0x3ca14a1f3e15a670U,
  0x3d5bb8183d80e08dU, 0xbdc24fbdbc0af946U, 0xbd1d61a53d381c71U, 0xbde6dac0bdeb9227U,
  0xbe32a133bb8f6835U, 0xbdba93a5bca2f4aeU, 0xbc16038ebded88e2U, 0x3da568b03d2dec6dU,
  0xbd1ebd3b3db6d340U, 0x3b8106ecbd8f4f59U, 0x3e0f052d3caaf2a1U, 0x3d34dbf23ac172e6U,
  0x3de7934f3de26dfeU, 0xbc402239bd9d7378U, 0xbd912f3abd3a746eU, 0x3d6dd3933d212fbcU,
  0xbc769b51bd4853f8U, 0xb99795debd9c5145U, 0xbd60ffc3bde0cf2bU, 0xbdd93e533de7d67fU,
  0x3d8247233d5b66d6U, 0x3d72aff4bdedaa5bU, 0x3d40f5373d8f6635U, 0xbbadfb59bdf121e4U,
  0x3dc1d4cebd933d0eU, 0x3d9a704d3d9321d3U, 0x3d97db633d6b6f8dU, 0x3dae3b12bdc79b61U,
  0x3c24d10abc064445U, 0xbdb89988bdaee002U, 0xbd61a388bd462ebfU, 0xbce72f9c3db1e8c1U,
  0xbcf210083cfa4fefU, 0xbd303ad2bd8d6b3aU, 0x3d36f8013d4f33c5U, 0xbcb620f23ca2df06U,
  0xbcae3e0fbc76edb5U, 0x3d8b3abe3d9c2818U, 0xbd0843e03c64cc7aU, 0xbd34a18e3d458992U,
  0x3c5d3ffe3d2be5f3U, 0x3e1ced7b3d057401U, 0x3dca08793d0d67aeU, 0xbd0a059e3dc7a75cU,
  0x3c4e91b63d22bad0U, 0x3d9fbe08bd549cbbU, 0x3d8c0f563dc2dc4eU, 0x3d8770193d77842fU,
  0x3d6ebca7bcee00e1U, 0xbd9ec9d6bd19658bU, 0xbd9fc7edbd65a2b7U, 0xbe07f7c2bb939259U,
  0xbc8bd0d9bd9761acU, 0xbccbc05c3c062ddaU, 0x3dcb0b2e3dcb672dU, 0x3cd00389bd9e3386U,
  0xbd54cdc23d620438U, 0x3c805213bcc718fcU, 0x3c7b84ad3a23cb1eU, 0xbd81a5a03c56a94fU,
  0xbdb84bcc3dec446cU, 0x3d1e29443c76c3afU, 0xbd9da1e33db15f46U, 0x3d8fa8293de91768U,
  0x3cc416163dd4fcabU, 0xbdf828c03cdea4cbU, 0xb9e6ce3cbd920d61U, 0xbd26810fbe120521U,
  0xbde596b43cb92754U, 0x3d175e1b3df72687U, 0x3d98043bbbf924f7U, 0xbd345539bdb4a927U,
  0x3c69d3b2bd6ea40dU, 0xbd50f0873c8fa36cU, 0x3e007fc8bcd5e772U, 0x3cb42bfa3df6107aU,
  0xbb7ee3033c9c5e67U, 0xbbf060f53d2db4e5U, 0x3d66d27abd7084e0U, 0x3d018a0f3de4773aU,
  0xbae2dec3bd7252bfU, 0xbce540933d66add7U, 0xbc40a36ebd7abdfaU, 0xbd6007613cf621d6U,
  0x3dca8349bd09b722U, 0x3ca3684dbd082ad2U, 0xbdcdfd263d900e19U, 0x3d9bf221bd83b0fcU,
  0x3d88844e3db549e0U, 0x3cf85cad3c7e1a6fU, 0x3d917af03d2dfafdU, 0x3d1a9457bd6b0b55U,
  0x3d3b04dc3d920ee6U, 0x3d621bcfbdca0929U, 0x3afef3803deffad8U, 0x3ddb3bd23dc6e03cU,
  0xbde55909bcfe4364U, 0x3c8d0d223d28444bU, 0x3c82fe6a3c8d6162U, 0x3d2d473b3cc1c9b3U,
  0xbdcc09ce3dbfad5cU, 0xbd26ba2dbd2b59d2U, 0x3c92276ebb2e2ba3U, 0xbcba0c6f3bbe1cb2U,
  0xbba4d8dc3c9c5865U, 0x3d0ef093bd8331d0U, 0xbcc78f033d4882f2U, 0xbe0def913d81f3d8U,
  0x3de02dcd3d3cdab8U, 0x3d2a3149bcafa0bbU, 0x3d534c313c798ca7U, 0xbd22a29abd389609U,
  0xbcc97be2bd54e845U, 0x3e0b6cab3d07e153U, 0xbda1b1ca3dfbdb6cU, 0xbda01d1e3dc7d4a7U,
  0x3da7a89e3d49d496U, 0xbdb9de96bda1455cU, 0xbb7baeee3d42230eU, 0xbca63def3a16ee9fU,
  0xbc0204f7bd1d60e8U, 0xbcd90bfe3d80bdf2U, 0xbd0ffcb2bc4851c0U, 0x3d2d6d75bcbbedbeU,
  0x3cfb4f513e068149U, 0xb8fa18d23cda8ce2U, 0x3c191f21bda60940U, 0x3db701423e0d8409U,
  0x3d8026863e1254a5U, 0xbd8613b0bd0dafbbU, 0x3d78406d3d878d6aU, 0xbe2295763c416e31U,
  0x3c8a10013cfb511eU, 0xbae79095bd902ceeU, 0x3d8181883db79ea0U, 0x3dd04bed3d5c26faU,
  0x3da2bfa0bc97810aU, 0x3d045c5f3db8f5c4U, 0x3c120ae93d962c40U, 0x3c438853bd99f988U,
  0xbd1e095bbd532763U, 0xbcd10ca23d8e4e05U, 0x3d5fe15c3d0a8012U, 0x3dbb08dd3e11b1d6U,
  0x3d398049bd8654a3U, 0x3e1d33e9be0cfed6U, 0xbcf619ee3dbfa0f3U, 0xbced971d3da3479dU,
  0xbd015c033be146f1U, 0x3988d85ebd8c4b08U, 0x3d0fe80f3c830a6cU, 0xbceb97053cd03773U,
  0x3d81bca5bda5a4fbU, 0xbd6eb7b93cfba090U, 0x3c72c3efbdbfa71cU, 0xbd65b0023dd53ba7U,
  0x3d566e873c99bb01U, 0xbd341f563d436feaU, 0x3e27a13abda69d90U, 0xbd3741a43a9aba7dU,
  0xbd9f19c1bdb7a7a7U, 0xbdee17c73c8ccdefU, 0xbde372273da35c93U, 0xbd630f6a3d3e8300U,
  0xbd011de03b2224d6U, 0xbd35092dbd2533f1U, 0x3d27793a3dae281dU, 0xbb9894da3cc04479U,
  0xbd9d8946bd385524U, 0x3da3a3643d906e3bU, 0xbce1932abd0b81ccU, 0xbcf4ad83bcfe0460U,
  0x3d872d1c3c1ba84eU, 0x3d95e0f6bb4b2f67U, 0x3dd9f9e63d9028d7U, 0x3de3a8f03c8481cfU,
  0x3c90bb8a3bbcff70U, 0x3d8ad7e0bdc9ef14U, 0xbd71c0c1bd932c03U, 0x3c60f803bd06aaaaU,
  0xbd98d56f3c8bcb81U, 0xbc1d3ce13c59b85fU, 0xbd07b583bd0fccb0U, 0x3a80a3d93dec8407U,
  0x3ced50c03c97dae4U, 0xbe11df4d3ddea75eU, 0xbdcaed4fbd4c4043U, 0xbe0e318fbd248cb9U,
  0xbdf35f01bceb0394U, 0xbc827e3b3de2181eU, 0x3d72d9f8bd0352a4U, 0xbd908c1f3dd198f5U,
  0xbc866fc8bde62215U, 0xbdb5a8c0bde8b891U, 0xbe03563b3d070478U, 0x3d9f38753ca5cdf1U,
  0xbdaf149d3c6658deU, 0x3c8df633bd730f98U, 0x3a260d743c956303U, 0xbd599a4d3d056b7cU,
  0x3c7584febdd0b15cU, 0x3dc1ee8b3db5b965U, 0xbd95a8dabd85407dU, 0xbd7a196ebce8d9e7U,
  0xbd9d573c3c02c5c3U, 0xbcacf0293d7054c8U, 0x3d7659fdbd5fedb0U, 0x3d4fcd81bc81ba01U,
  0x3d74e969bd5ad3cfU, 0xbdbee375bafe917dU, 0xbd0c7cb13d13ccb4U, 0x3d8e220d3c30f16cU,
  0xbd7f94f8bd3d616bU, 0x3c4cd1cd3ddf3d2eU, 0xbbad7b08bd9b97eaU, 0xbc872ecabbe0705dU,
  0x3d091779bd9a77c1U, 0xbdff92fb3dd18d96U, 0x3d2d50b1bc14b9b0U, 0x3758b8f93d04f701U,
  0xbdc351573c12dc67U, 0xbd9fa6e33db11e7fU, 0x3e004f94bd8b83d4U, 0x3b84bcf93de8178dU,
  0xbd91ef35bd815c87U, 0x3d1da859be08198aU, 0xbe207cbebd139b6eU, 0xbd6df1b6bda8ad81U,
  0xbda170a93e0a6d37U, 0x3d5635bebd892121U, 0xbd90a5ff3d10a750U, 0x3d5d8887bda3a70cU,
  0x3d5faad0bde231b6U, 0xbd54a67f3da53e22U, 0xbd3db308bbe6039eU, 0x3d8f13ef3d11b75bU,
  0x3d9356da3db3c0e0U, 0x3d8347da3dc43a8cU, 0xbbd4fe673b9f9954U, 0x3c477e203c9912bdU,
  0x3c4c768d3dd89a26U, 0xbd13e1b53d450fd7U, 0x3caeb918bd88b9e6U, 0x3d97cbcf3dc051b4U,
  0x3d7074b3bc436d0aU, 0x3a3703ac3d994160U, 0x3d0100cdbcd48ecaU, 0x3d932777bcef9e0aU,
  0xbda68c943db80511U, 0xbdc36b593d8f97e3U, 0xbd578114bd0750c5U, 0xbc36873ebc180c37U,
  0x3cb80b05bdae2016U, 0x3d928a643d6a4affU, 0x3dad7536bda2d8b0U, 0xbdca74963ca711eaU,
  0xbd6db5b4be192f20U, 0x3d60f713bdea2a20U, 0xbd7d84b7bce1463eU, 0x3d6611bdbd759e46U,
  0xbc8bdb383cbbe966U, 0x3c642e8c3cf78f66U, 0x3d29e3c03d8c6fe5U, 0x3cd58a71bd600f1cU,
  0xbd5f1fbb3ce167deU, 0x3c1f03673e18cc2eU, 0xbda8e7c83c17ffcaU, 0x3c895ab6bbcd6c6aU,
  0xbd976aee3dbdfb53U, 0xbc301043bda35ce4U, 0x3da3ad7fbd6ef120U, 0x3c6179f9bc03adc1U,
  0x3d78fcc5bd9a3ebcU, 0xbd765f723c944617U, 0xbe013b4b3ccdd9ffU, 0xbd6b10423d020e6cU,
  0xbd99d1403d01d543U, 0x3dcb63a63d2e67ccU, 0x3b45fa5dbd4825faU, 0xbd978e343d58e0a2U,
  0xbd5e7459bd305cb2U, 0xbb38721b3cd55877U, 0xbde11f74bd148652U, 0xbd308798bb474e22U,
  0x3dda8413bd9639d4U, 0xbdaad7a63e0706f8U, 0xbd5d9934bdd2b6bfU, 0xbd7ea7b03de21144U,
  0x3cc4bcc4bdf3c57fU, 0xbd70b0a0bca011a3U, 0xbd826ec83d540ee1U, 0x3d89573f3aee098aU,
  0x3cbfced03c7b2a39U, 0x3b1bec6f3c8539b3U, 0xbdccef5dbabe90a2U, 0xbdb17e353cda987dU,
  0xbcaf04983b414489U, 0x3d78d1413da817e4U, 0xbd103482bc6428c8U, 0x3cc938f0bca94421U,
  0xbd9972fbbc5e63e6U, 0xbc8bdfd7bd9151d1U, 0x3d61fc0d3d933a14U, 0x3d9aa6d5bbcf5696U,
  0x3d023d61bd807eabU, 0x3d19282dbd852954U, 0xbc8084e5bc810b36U, 0xbd26e6e2bd84a202U,
  0x3da04c8fbc876426U, 0x3dacfe243c0df84bU, 0xbdae5bfd3d5bf465U, 0x3c864daa3b347232U,
  0x3d072aaa3a874774U, 0xbd8c9c523cd4d5c8U, 0x3d8d7983bda3319bU, 0x3dae2b503aba6fc1U,
  0xbbc67eb4bd1a0619U, 0x3cbf19a6bdaceea8U, 0xbd0adcbcbc24e4caU, 0xbd5409b93d5e9076U,
  0x3d8b1af9bd8a85deU, 0x3ccf4a75bcb25a8cU, 0x3b08f8aebd1752b9U, 0xbb618ad33d7a713dU,
  0x3d090fb6bcd59f12U, 0xbcdc5a69bc903142U, 0xbbd96edabc9caafbU, 0xbb7834333d7bf3e1U,
  0x3dfdfec13d8699a6U, 0x3d37beb4bac8807bU, 0x3d8683d33bca0509U, 0x3bc393f73d5982b8U,
  0x3dcca078bc4ab1b0U, 0x3d982505bccb135cU, 0x3c593d313dc5dc64U, 0x3d1576513d00b0e2U,
  0xbc80fd2d3da10b14U, 0x3d6682b73d5642bdU, 0xbb0193023ac9c487U, 0xbbe294f83ca030f3U,
  0xbd92b8c1bd057152U, 0xbc6efb613c03c1c9U, 0xbc73f382bd02c879U, 0x3ce738b03d5e593dU,
  0xbd4f4b893cc6c002U, 0x3b96440ebd0f3517U, 0x3d66a61fbbaadf6fU, 0xbd24759ebd10dccaU,
  0x3db4a30a3b0117e2U, 0xbc9fe39abba75cb5U, 0x3ccd196abc4f4bebU, 0xba3962233d83990bU,
  0x3d5e8ababd4fd9f9U, 0xbd6cc99abdb0724dU, 0x3c007d773d7a61d9U, 0x3d8b3e4dbce994d4U,
  0x3d60d864bdb3cb1aU, 0x3d47204e3c7174eeU, 0x3d54629e3d3434d7U, 0x3d26fd013ccfea97U,
  0x3dbb61673da09d2cU, 0xbd355b8ebc67f4acU, 0x3d828c78bd757bd4U, 0xbd401df63a94712dU,
  0xbc52eb433d569bbdU, 0x3ca41e013d3293f5U, 0xbcb2bc903d385d44U, 0x3d0bc3ae3ceb3ccfU,
  0x3c3ccd0f3d09e830U, 0x3dd2d0d93d91fc72U, 0x3c2c2020bd0892e9U, 0x3d0694203d9396e9U,
  0x3d1654f03c5e36a6U, 0x3cabb2303ca6013fU, 0xbd388eda3ba0b405U, 0xbd667319bc5ec62dU,
  0x3cc027f83ca7575fU, 0xbdc22d3b3c58bee5U, 0xbd4295febdc3f132U, 0x3c6c4a023d04fc70U,
  0x3ce88a0f3c053b22U, 0x3cb1b6b1bdbae433U, 0xbd8b8d113c7480cfU, 0xbc4c498e3d0e964dU,
  0xbcc922ebbd910baaU, 0xbab4bc1f3d59325cU, 0x3cf7ccdf3d44c378U, 0x3ca8aa483ce281b3U,
  0x3b855b203d2189b3U, 0x3aff8afd3dc498d1U, 0x3d3b8cf23d234907U, 0xbc3fa3763d9c6800U,
  0x3c8c7dee3d3e4a4bU, 0x3c0a8486bbe6b99fU, 0x3ca77f3a3d1c9559U, 0x3d179b01bd22bc0bU,
  0x3d533daa3d4503eaU, 0xbbe197613c977c32U, 0x3c95d8f53cee5368U, 0x3d7720f93cca3128U,
  0x3c74f5513c9b6219U, 0x3cff471c3c06c234U, 0xbc86320ebd64e588U, 0xbd28ca683d53a31fU,
  0xbd8725bfbccba86fU, 0x3ca33134bbef2f39U, 0xbca5888d3aaabbb2U, 0x394fdad53cfed3f8U,
  0xbc78df383cb68769U, 0xbd7ee6083cbbf54bU, 0x3cc02308bb60f619U, 0x3bb993e4bcc958d0U,
  0x3c286af5bd7c4ddaU, 0xbc8e0a99bc5eaa98U, 0x3cd787cb3d514622U, 0xbd8d1634bd01911eU,
  0x3d1b4082bdb42193U, 0x3b67a6b93d404e96U, 0x3d851ec0bb6cd45aU, 0x3d3756ccbc8acc0aU,
  0x3d7e45ab39d8f606U, 0x3d81d79b3d3d5bddU, 0x3d8b4e103d51d7eaU, 0x3d6395f03be8bd48U,
  0x3dc12a87bc8a460bU, 0x3d82eba93c9d07e0U, 0x3c2ed3ddbd6b61a8U, 0xbd386ebebd72c6abU,
  0xbd18f5bdbbd5c6ebU, 0xbcc2084ebd7bb32dU, 0x3d441981bc86e78fU, 0x3d5653de3d2ed1d3U,
  0xbc8630e0bd53cb47U, 0xbbf26bd8bd3f6e9eU, 0x3d484a7dbab33d1cU, 0xbd1028d63dcb7be6U,
  0x3d2112543d66fc82U, 0xbd6175acbc1f33b6U, 0x3c73e62dbcbdebf9U, 0xbcb132243d4ea21aU,
  0x3d68a6a33c206486U, 0xbd70fbd8bc7645e3U, 0x3ca903083d40656cU, 0x3bda07f4bbe57f78U,
  0x3dab21c6bd3a211cU, 0x3d8500a2bc41bfe1U, 0xbda255a23cdd3507U, 0x3c02ba9f3b9f8bc5U,
  0xbd806f0fbd956e7fU, 0xbd1e9e13bd3b691fU, 0x3dd8ec773d9e14d8U, 0x3d4530f7bc8eefd1U,
  0xbaf01a54bd319c30U, 0x3d5c8b1bbcf7f070U, 0xbd912c863d1733b9U, 0x3d3d2c783d096d32U,
  0xbd22c2113d45687eU, 0x3cb4a66c3d33261dU, 0x3d4435ffbd0f03a9U, 0xbd244fdbbd0ffd43U,
  0x382ce4913cef8a86U, 0x396106c23c65cd92U, 0x3d28d8b63cd87065U, 0xbd1c7b903d7e70f0U,
  0xbd1e56d53d861280U, 0x3d693ddc3d4f01a6U, 0x3dbadf053cbc9890U, 0x3cc8137dbb36779dU,
  0x3d137f2dbdba5fdfU, 0xbc41d7733da170f7U, 0xbd0df90c3d8378c0U, 0x3d5bf23f3d80f7acU,
  0x3d72e4c9bd815629U, 0xbb085f063ccb8c1bU, 0x3cc9e37a3c56a7a3U, 0x3c01ef913dd1567fU,
  0xbd11dd3d3bfe6310U, 0x3dc6f5e6bd6ff073U, 0xbd84b3afbce458d2U, 0xbd6b6e3a3dd4b383U,
  0x3d8fd236bd493ff7U, 0xbd595b65bbd30b2bU, 0x3dc7d860bd165f5eU, 0xbddcdea8be03430fU,
  0xbc8a9800bbd3ce0fU, 0xbe2ac5e63d5c7874U, 0x3cf1a0713b77b09eU, 0x3e05be14bd2e3f68U,
  0xbc1b8c873d59691bU, 0x3d4b0b143db75269U, 0x3d56a538be33aa00U, 0xbcb1ed413c260eaeU,
  0x3db39366bcf9801fU, 0x3d0137903d997a3fU, 0x3b9fc9dbbda2a3ceU, 0xbd78c4d83d95aed7U,
  0x3e05078a3cfce348U, 0x3d04bcddbe1317acU, 0xbd25e6d23d4123dbU, 0xbe41dfa33dfb5e41U,
  0xbcf1cd3e3d915361U, 0xbc0042a5bd8a81a7U, 0xbd8d939bbc5c8c18U, 0x3c7f57563d18265aU,
  0xbc1f5021bdede4e8U, 0xbd875678bcfbeaafU, 0xbd904c563d414ea9U, 0x3d81a73b3df1b53cU,
  0x3d4ae7f53d8719bbU, 0x3dcd7886bc91fbf3U, 0x3d8f8d9fbad073b9U, 0xbd9471413d2601abU,
  0x3d2fda57bd025d96U, 0x3d041fae3de8fb9aU, 0x3c8c6263bb00273eU, 0x3d81f6dbbd5e15bbU,
  0xbdf7e3fb3c27228aU, 0xbda588e0bcdeaa75U, 0x3c35d6593deaa773U, 0x3caecdd4bd2e4655U,
  0x3d421bd2bc9ac486U, 0xbba48f793d15e51dU, 0xbd9d69f4bbf47c40U, 0x3dbbc7df3b8f18b5U,
  0xbd81556f3d44a54bU, 0x3c2d35013d700eb1U, 0xbd250b703c4b305aU, 0xbd9008b63d132890U,
  0x3de0e2f53dbf51e8U, 0xbd31d156bdad569dU, 0xbddaa415bc9caaceU, 0xbd950eec3e307934U,
  0xbe3b24e03c9cfbd1U, 0x3db87763bca91867U, 0x3db0c3a63d4f509fU, 0xbc27616abd9b15ccU,
  0x3d93b5c7bde0ff6eU, 0xbde0836d37403627U, 0x3db9e6293b7b4832U, 0x3d97d0b63e1b1d83U,
  0xbd2a310f3d62e0feU, 0x3dfa8cc83cd6c761U, 0x3b9b60313d923144U, 0xbcc09f3c3d1f85fcU,
  0x3cfb9f473cb087c0U, 0x3dd4fa9c3d71f785U, 0x3d4448b53e202d9dU, 0xbd58fed8bd917b25U,
  0x3d44d62e3dd11197U, 0xbd92f429bc01be00U, 0xbb210d373d731dc0U, 0x3da081313c9a99b8U,
  0x3c8efa07bd891d71U, 0x3e0d2f0d3d9faa6fU, 0xbdc69cedbe413671U, 0xbd42b52f3c972f29U,
  0xbc402df63e16ebc6U, 0xbbeadc01bd8fb44bU, 0xbd153c6d3d2e995cU, 0xbd34a7233d936789U,
  0x3dddaa773d162ea6U, 0x3bbbd67b3d385c9aU, 0xbdb2750a3d0348a1U, 0xbd6187263d4b3a0dU,
  0xbdea9a46b90145ebU, 0xbb682a943dab5f90U, 0x3d6979b33d2c1982U, 0xbd95a9003c639d7fU,
  0x3e0e35d83c455231U, 0x3d6e882e3df3e251U, 0x3d8c53b63d604533U, 0x3d30bf8d3e28435fU,
  0x3d3a2c9d3d5b0ba7U, 0xbca584163d8f5b9cU, 0x3dbe876c3bda7509U, 0xbdb6e0c13e20252eU,
  0x3dec810e3c20398eU, 0xbdc33a1e3caede2cU, 0xbc8ca3fa3c1fc230U, 0x3d718626bd966741U,
  0xbddb4ad4bd9521b4U, 0xbcb95aa8bd820ec9U, 0x3c8c6d853d843ddbU, 0x3d672004bc0a92adU,
  0xbd3ec1613dc3a56eU, 0x3dd2b5853e071a5fU, 0x3b0b36b8bdce7bc1U, 0x3d12ee243d8487ccU,
  0x3c34e74f3da7e82fU, 0xbdb3eab8bde594a4U, 0x3e034afe3dbab2a4U, 0x3c75c54a3d801caeU,
  0xbd60001c3d21e77dU, 0x3d516a9c3d29c36aU, 0x3da6d4503c988e92U, 0xbdbc94403d245741U,
  0xbe14777abd10a00eU, 0xbd1980913d3ca5cdU, 0x3dc062843e026a7eU, 0xbd38531dbd3ed862U,
  0x3e1843abbda3e005U, 0xbdbb29463c2c0a76U, 0x3d94ae083d450443U, 0x3cdac0353d783963U,
  0xbdad76253d9c577dU, 0x3db001cd3bc8f790U, 0x3d89ba843da21b9bU, 0x3c0985263e1e80a0U,
  0xbcfb5201b9bacdfeU, 0xbd341b32bcb0ae95U, 0xbca2c8d53c9190b8U, 0xbd511a973b46eed4U,
  0xbde5d7e4bd4d9af6U, 0xbd374b673d0c05beU, 0xbc90ab503d048664U, 0x3db77f92bddd576dU,
  0xbd08550ebc858ee9U, 0x3dd4e09f3dc8e8d9U, 0x3da40d81bdfff388U, 0xbdb02c49bdb3003dU,
  0xbd12b9f5bd0fa14aU, 0x3c82f00abda60c16U, 0x3deb31b5bdea7e9fU, 0x3d923bb63c85251bU,
  0x3dc8cae5bd573475U, 0x3d73fb1c3c6dae8eU, 0x3d4c0a043dd731b1U, 0xbdff60663e130a48U,
  0xbe11dc3dbd809d28U, 0x3c6d94b8bb225aabU, 0xbd1ebc6b3d1563a1U, 0xbd80b18ebdb2437bU,
  0xbb47962abd475b1bU, 0x3c8f95513cbd1f66U, 0x3d129b043de59577U, 0x3c69f1133d17d836U,
  0xbdb2d754bca0cbc9U, 0x3ca97c3f3dd2c121U, 0x3d694f76bc95f073U, 0xbcc9ab3abb7f15a8U,
  0xbd2c10c5bbb223b6U, 0xbd89c9813ceaf9c0U, 0x3dba80753c87e502U, 0x3da57726b86b9e88U,
  0xbd303ace3e09549cU, 0xbe75a4cb3da261efU, 0x3d8303cc3dcff7fcU, 0xbd1d0ef2bd10b06dU,
  0xbcacc4073a4c9093U, 0x3d842b12bdc6a8d2U, 0xbd94df1a3bbcbff8U, 0x3dae58fa3d8c8210U,
  0x3d912d7d3de2bfdaU, 0x3d484d73bd7c4bfeU, 0x3d804211bcbbc3f4U, 0x3e11ae193ce21582U,
  0x3d9bb58b3d46e964U, 0xbd9f1b593db03cd9U, 0xbd7f89e6bded5934U, 0xbe604b8abcd2b3caU,
  0x3dc723f43d2ea9a8U, 0xbd028da83e31be68U, 0x3e03bfb1bd65ab30U, 0x3cefac7f3e1fab09U,
  0xbd9b11c7be1dc5f7U, 0xbd9b1f8f3d1ebb26U, 0x3d176fa3bc88036bU, 0x3d691f6ebd577c58U,
  0xbd447777bd6f76f6U, 0xbdb653203ddf0c6aU, 0x3c2592dabd794b8bU, 0x3d8ce7d43b64de45U,
  0x3d4f07433d31df53U, 0x3c5f5a70bca8f24cU, 0x3d4c26573d2c7cb6U, 0xbab5ad523b01867bU,
  0xbc9a99c5bc257874U, 0xbe41c52fbd40ee8dU, 0x3dff19143c6b8b04U, 0xbd2970bebda91977U,
  0x3c4f12523d7550efU, 0xba5708693ba268baU, 0xbe4435dfbd33e2c3U, 0xbd80c3fa3dcf65eaU,
  0xbd220834bc569337U, 0x3c3ffae63d978db7U, 0x3d7897e63d240025U, 0xbd2bc2733c27591dU,
  0x3959fd15bd856800U, 0xbd8bf0d53bd88c5bU, 0xbdcb74943c5c5accU, 0xbd254a5abcf7e972U,
  0x3c0d9b153d016fc6U, 0x3d5e86373e2a9559U, 0xbd5a77403c98c38eU, 0x3dcb7ffa3db30b7eU,
  0x3d361a27bdecf285U, 0x3d8159a53dadbbc3U, 0xbdfb9eef3e0fdb70U, 0x3cd347ad3dd468caU,
  0x3b5d4d593d8e08d3U, 0x3d6a957f3c2538e3U, 0x3d5c2119bc940e26U, 0xbd5916c8bdd73807U,
  0x3cc134cebd93c5a3U, 0xbd2e0d17bd7ba355U, 0x3dc725fcbcd0445cU, 0x3d96a9cabdbb4d6dU,
  0xbcef71a73e09c81bU, 0xbe427ba8bd067f83U, 0xbbf3ee34bb94b351U, 0xb954c25a3d992af7U,
  0x3bb063d6bca643e9U, 0x3ca99509bd911c16U, 0xbe009f6dbda4bbb8U, 0x3daba7923e0617e4U,
  0x3cc9e3a93d864737U, 0x3d2af8633c8265acU, 0xbd11dccc3d8da4c3U, 0xbcad4f1cbcc605e7U,
  0x3d9a255a3cb5b915U, 0xbcedff9e3d8dc3feU, 0xbd96cd15bd8bbfe3U, 0xbda0ec333a524c94U,
  0x3d0eec24bc97d490U, 0xbd71e64f3dc7d56eU, 0xbcd7d591bd972321U, 0xbcb7952cbc4fd87bU,
  0xbdacf4b4bdb10eafU, 0xbc29f4fcbc910807U, 0x3c8a4a993e0b623dU, 0x3d939b933d8ec4aaU,
  0xbd8386c13da2516fU, 0x3d480a153d0cff7eU, 0x39d6a6c33db31f40U, 0x3c110cd33d45c9a8U,
  0xbc757cd03dae33faU, 0x3d5cfb013cb5c486U, 0xbbce5e80bd17cc44U, 0xbd59c621bc132983U,
  0xbd50e7753d0c53b7U, 0xbe18773c3ca361b3U, 0x3d6665fcbd595a86U, 0xbda7fbf2bd1abc01U,
  0xbd76e8c23d7ab24cU, 0xbd0a3a29bda4a3c0U, 0xbe2f8bdb3dc57b77U, 0xbc8c82fe3d19526eU,
  0xbced915dbc368706U, 0x3da626a23cd035f7U, 0x3db2e99b3d6067cfU, 0xbd4774093c5af04aU,
  0x3dc0a3903d299ce2U, 0xbce32ad0bd67d9bfU, 0xbd5d62eabd12bd88U, 0xbd112c353d64181dU,
  0x3dce17be3e04f311U, 0xbd548e6abbb6155fU, 0x3d3fd1d73d9b93caU, 0x3bbedb233dd60721U,
  0xbc83ad923cf86538U, 0x3d548047bd1a12c9U, 0x3baf1a213cdaf831U, 0x3d9095c0bc5d64c2U,
  0x3d306ae7bd829224U, 0x3de00a9bbd3ff3eeU, 0x3d8f42a73de82e37U, 0x3c6ac3fb3b3c3066U,
  0xbb9ec9c83c9c7c29U, 0xbd7eaa3cbd27cb2cU, 0x3d8aad31bd5018baU, 0xbc9fce14bdd31adcU,
  0x3db167923da55b6aU, 0xbc65ca10bd2aa1e8U, 0x3e118b08bca56b52U, 0xbdb16a503d4c79baU,
  0xbd482c573d03f2eeU, 0xbc3b04f0be023ecfU, 0xbe7accf93d742f76U, 0x3ca6edbb3d3fa453U,
  0x3d34d43dbd8dfb75U, 0x3d1004173d7c7993U, 0xbcd2e8fc3d8d3be8U, 0x3cc4ae303b3b3d2dU,
  0x3e1c070d3dbd159bU, 0xbcde065cbd719fbfU, 0xbe4460703d19aa4fU, 0xbe4b4687bd56cd87U,
  0x3b3e76ea3c6d7815U, 0xbc02a83f3dc2abb4U, 0x3d203121bb0aa63aU, 0x3c20005abaf042edU,
  0x3d681ec4bc601907U, 0xbd4224a8bd526694U, 0x3cb5a089be0b93c5U, 0xbc638be83d0b0ed3U,
  0xbc79af733d53444eU, 0x3c5444683e213688U, 0x3d64b174bde10b91U, 0x3cddcc02bc34ecd0U,
  0x3e35e2663a957210U, 0x3dcd383bbd1eb3d4U, 0x3ca0e5c6bde626b3U, 0xbd5d70353c4b4339U,
  0x3d67b04dbd58bc1cU, 0x3cfb82debcecb0a2U, 0x3dbf741fbdd21df4U, 0x3d02239ebdbd8c7cU,
  0x3d53b3d2bdbc8a6cU, 0xbc00e1b7bd8441d3U, 0x3d8446eabd6f841cU, 0x3e12a002be225695U,
  0xbd9125af3cad209fU, 0x3ba2b9813d8acd82U, 0xbcad696d3d331b9dU, 0xbd09b9f0bd10697cU,
  0xbdf3edd73d458c0eU, 0xbe1c31a2bce02124U, 0xbe044f933c1a2002U, 0xbd8fae63bc884716U,
  0xbe3ea790bd096734U, 0xbdb648f6bc965801U, 0xbe4b7cde3cf1c8f4U, 0xbde0d64fbd6515abU,
  0xbd9055173e20a0abU, 0x3dc24dc2bd892d11U, 0x3dd0a86c3d0cc0e6U, 0x3d1ed333bdb8184cU,
  0x3c301ffebd1929c1U, 0x3d66d1d63d295d2aU, 0x3d78ff22bd95417cU, 0xbd98a75e3dae7ca2U,
  0x3dbbf696bd343f9dU, 0x3d9a4a44be0023e4U, 0xbd6c43cebde73e35U, 0xbd4eb3c43dc5f924U,
  0x3dc2e00f3d8cf47aU, 0x3dee1ac1bcc368abU, 0x3d77013bbbd19793U, 0x3bf08d9d3d32235eU,
  0x3b9a987c3da85dafU, 0x3b7ab9c13de98befU, 0x3d57c1263c36f9c4U, 0x3d75518d3d5f0da9U,
  0xbcc03975bdb783a3U, 0xbdb7e2093cf1d687U, 0xbe00b7233d9684ceU, 0xbb5789a1bcec0841U,
  0xbd7bc31dbd19d6fbU, 0xbdf26fb6bcc2f3a5U, 0xbc197b51bd3a28cdU, 0x3d233105bdaca921U,
  0xbe5360033d6a1478U, 0xbb969f893da6d6a6U, 0x3b90d2d5bc4c15c1U, 0xbde7be4d3cb59899U,
  0xbcc63f8dbcf810b6U, 0x3dae6bc73c61d1d4U, 0x3c1caec13d5a7f29U, 0x3ddb6300bd866b39U,
  0xbd36ad97be1b1a55U, 0x3cd1df993d9ee7dfU, 0x3d8a30fd3d40ee61U, 0x3d702ea0bd169cdcU,
  0xbd7e0044bd902a09U, 0x3dad6d053be1227aU, 0xb85892953db1c045U, 0xbd793271bdae1b5aU,
  0x3c97f80d3d144c79U, 0x3d7a113a3d320a0eU, 0xbd78c450be0ed6acU, 0x3bb6590cbd1c5316U,
  0xbdedb5f1baeb9bd9U, 0xbd529a81bc48742eU, 0x3dd7cd9abc50e9e9U, 0x3cd73f44be0594e9U,
  0x3dc36478bac5cf32U, 0xbe14c0f0bd87dae6U, 0xbd59d913be0c37bfU, 0xbde0addf3ce1f421U,
  0xbba41968be2fb037U, 0x3c7e5fb9babaa650U, 0xbd3eee5ebda4540dU, 0xbd81e8d03d5733daU,
  0xbe169a12be089743U, 0xbc95b100bd975d09U, 0x3ceaf385be0968dbU, 0x3bd2ebe93cf82601U,
  0xba2fe1b53d2faed2U, 0x3d0a9aaabd577bd3U, 0x3d70dd25bdcc6d60U, 0xbda398123d46151eU,
  0xbdb3fc553cd3468bU, 0x3d5a75923dbaf254U, 0xbce96295bdccf208U, 0xbd6a63663da8d033U,
  0xbc326700bac29139U, 0xbd93d3433d939c38U, 0x3b8ce249bd2cf32fU, 0xbdd7c6423c379475U,
  0xbd53a0483da22ef0U, 0x3c8b12ddbdacfcf3U, 0x3d0da007bdd61e99U, 0xbd473cdabce5af9eU,
  0xbe0515e13d78dea7U, 0xbd86230abd832b86U, 0x3e2e798abe2d9076U, 0x3d6db33abd4804ffU,
  0xbcd5e263bdec4ab6U, 0xbd4373d1bdf980c2U, 0xbcf84b64baf49c5aU, 0xbdd06eadbc75e061U,
  0xbe10b9f5bd473dfeU, 0x3b254643be1c2ec2U, 0x3de72a30bda6cfe0U, 0x3d0a429abdcb7a71U,
  0xbda457493aa1dd98U, 0xbaf5ecd0bb9e0df5U, 0xbd0a3f88be1ad484U, 0xbe03484c3d688261U,
  0x3d7410c5bdd57f0dU, 0x3d7f13b6bc7169dfU, 0xbd527f723d60d27bU, 0xbd283980bd1f4965U,
  0xbd8bf3ecbe17f777U, 0x3bcb22a7bd07dd70U, 0xbd505709be1a9646U, 0xbe03e7acbdfcdc5aU,
  0x3d1150febcca6e7fU, 0x3ce5ea8d3d84ca33U, 0x3d297db0bc3b3714U, 0xbe119cf43d29db64U,
  0x3cc553f6bdd50c36U, 0xbdc7c12bbcf1e188U, 0xbd03b3bfbd8b3843U, 0xbd773b2fbd88af6fU,
  0xbd3d8911bd11220eU, 0x3c995be2bcc7313aU, 0x3df7f8d7be241dc0U, 0x3dcddb60be0fd278U,
  0xbdc822543d32b781U, 0xbda05ac7bc1ab1b8U, 0xbcad98efbe2cd4c9U, 0x3c96665dbdb10d54U,
  0xbc4176963b0c8618U, 0xbe106313bdda7f01U, 0x3d002e123dbad171U, 0x3d96253e3d9bd9ddU,
  0xbe392bbdbe3fd45bU, 0xbd2b2758bd823577U, 0x3c725d12bdf1e336U, 0xbc4f00a63ca3e68bU,
  0xbd0218abbd719660U, 0x3a6cdfcebd83456cU, 0xbdf9c7fabd48b8fbU, 0xbdb9a363bc5c5425U,
  0xbd35b9adbcffab3fU, 0x3c50f6413d227ca0U, 0xbd9682eebdc7262aU, 0x3c39ff28bd9a829cU,
  0xba158f5ebbc935a6U, 0x3cedc675391b1d29U, 0xbe028453bcdc42ecU, 0xbca623883bda71c7U,
  0x3dae57bcbd837abcU, 0xbda9e14dbdee9b0cU, 0x3d6c1cbcbbad8af8U, 0xbdbcd693bcd1dbeeU,
  0x3d049ed0bdffbfc2U, 0xbc1514adbc9fb521U, 0xbd216d813d3775f7U, 0xbd9701d43d74b1c3U,
  0xbd1d02f7bd49e4a8U, 0xbd9df7433c94815cU, 0xbbd91e6fbd94b292U, 0x3ca6c0aabdb40991U,
  0x3c819120bc3834abU, 0xbcd6cb223d8592f7U, 0xbba8dfa7bc786d51U, 0x3e1d897fbdaa03dfU,
  0x3d84ab923ca07eaaU, 0x3d431b96bb0eefe1U, 0xbde20c4abd4f0fcbU, 0xbad19db8bca7e5d7U,
  0x3c593ca9bda43a2cU, 0x3d0b9412ba9ea3edU, 0xbd01d5f7bad67cd7U, 0xbdd22a773c1811dbU,
  0x3cc3baa93d72e18bU, 0xbcd5960dbd9370cfU, 0x3d0936a6bd0af739U, 0x3d50fe053d3793e0U,
  0xbd83b2053d3a7ba4U, 0xbdc7cfc4bd2bf882U, 0xbdcd43e83aaf07d9U, 0x3bdc3cfb3d2d66d6U,
  0xbc591475bd20e8e3U, 0xbd922bbbbdc77e0aU, 0x3d805302bda9445cU, 0xbe02086fbd9ea35aU,
  0x3d845ec73c9196e5U, 0x3d210ee13c3c0867U, 0xbd2f359c3c854409U, 0xbdbf44043d89a5a3U,
  0xbcabfca8bda269aeU, 0x3bdba652bd324f9dU, 0xbd3142ffbd362158U, 0xbc15507fbc184510U,
  0x3c6087b7bcbdaef2U, 0xbdbb292c3cfe25ceU, 0xbcebeb59bdb51a2dU, 0xbc2b6f01bd8f07a7U,
  0x3da15f8dbc58ef10U, 0x3d03465dbbac0348U, 0xbd290096bd14fe6aU, 0x3da0f046bb81b903U,
  0xbc727ef6bc935630U, 0x3cd1f9923d3918bcU, 0xbd9e1b333d3ef4acU, 0xbd94d7e5bd45a3c8U,
  0x3c6727ec3c02a997U, 0x3d8ddc15bdbb163aU, 0xbd56ae4cbd0e8c93U, 0xbd2f2dd23d87b550U,
  0xbd6f47963d0f9e91U, 0xbc8d1c0e3da0bcabU, 0xbd91c7d4bd01bf38U, 0xbd49433dbcecd896U,
  0xbd60c8f6bc668676U, 0x3c0e1203bd310002U, 0xbcb71289bd928c7eU, 0xbbba51d43c3e0366U,
  0x3c96cc4fbc5a1d78U, 0xbcf8020abd11a4bcU, 0xbdbc0463bd3088f1U, 0xbde235343df6bbc6U,
  0x3adb0cea3c90426cU, 0xbd694c5a3cb72f30U, 0x3d2c44f33d66162eU, 0xbd8d646abc308226U,
  0x3d0996d7bd882641U, 0xbdd6e36f3d1d8f79U, 0xbda1689fbd8ab087U, 0x3d6b772dbddcac90U,
  0x3d8c7a0ebd234d68U, 0x3cf2407abd745867U, 0x3d4f6f2f3c98bfbfU, 0x3d366c0c3c1c8ed2U,
  0x3d7d17e3bce5df94U, 0xbd1b93bfbd85877bU, 0xbcb12053bd7724d1U, 0xbcac6e60bbffb11bU,
  0xbd88b0863acdc137U, 0x3d32acfe3abce3fdU, 0x3d28f43f3c8a3cc2U, 0xbd74406abc3c0a2fU,
  0x3d2172b6bd228bd4U, 0x3cb81bf1bca587f1U, 0x3d1029363d26de04U, 0xbcb66637bcfd6ac4U,
  0x3d83ac50bdb188bbU, 0xbd536f25bcac33ceU, 0xbc679dd3bd414643U, 0xbdcece46bd329549U,
  0xbcbbbb95ba767772U, 0x3cbe8217bbd9527dU, 0xbe068d2dbc338462U, 0xbd0ec3df3caf84cdU,
  0xbda22f53bd7e803bU, 0xbd92dbbb3d812e8dU, 0xbc94225b3caa9934U, 0xbca4d280bd4fddcfU,
  0x3cf8d87f3d821b64U, 0xbbb316e73d2d6971U, 0xbd1d43443d0f2c12U, 0xbcc6140bbdc2f63aU,
  0x3d8e03e43b07b6a6U, 0xbd7f089a3baf0b3cU, 0x3d18dda33d0cae9fU, 0x3d20a4ddbdb84480U,
  0x3c2694b8bda46e78U, 0xbaef0a4abdc87fbeU, 0xbdf0a4d1bc31e2f7U, 0xbd2176fdbcc0b5c0U,
  0xbd215dad3d129e6eU, 0xbd032195bdae4d82U, 0xbda03b1e3cca0554U, 0xbcb3a877bb57a8f0U,
  0x3c3c20a03d1d78f4U, 0x3cada03bbca48094U, 0xbc037da3bceb557aU, 0xbdc547f0bdb1f62aU,
  0xbd9fefbfbd281467U, 0xbd41f77bbcd48899U, 0xbd152cbfbd5518acU, 0xbda393353ce709d2U,
  0x3dbd582ebd843d13U, 0x3d9e32d13d17be3cU, 0xbe3466083d71f1a3U, 0xbd4e2e673df68a75U,
  0x3d68ce5fbd31cfb3U, 0x3d711bd7bd81c401U, 0x3dbf66993c2568f3U, 0xbbc503863d0d52abU,
  0x3df3727a3d20945bU, 0xbde4484ebc0a18ebU, 0xbc7e33cbbd2c0860U, 0x3d02a1ddbb81fdb3U,
  0xbd3a04b4bac82fe6U, 0xbd569df1bd6684ffU, 0xbc2211063d8dc745U, 0xbd5d5afdbdbc4d55U,
  0x3d5a3432bc961b87U, 0x3d63fd3abdb58136U, 0xbddb8cd93d81a399U, 0xbd8378113dd76bdcU,
  0x3c1efbc73da02036U, 0x3b730d2dbc17e11eU, 0xbcf69f233d225137U, 0x3cb34eecbd55e8c1U,
  0x3d20e5353d922572U, 0x3d86cda23d43d9c7U, 0x3d169059bd84e752U, 0xbdb1457ebdf76f36U,
  0xbddf3ef63de359e8U, 0x3db55d733d68cfefU, 0x3dacc41dbce92684U, 0x3b75cd3f3cbaefdeU,
  0x3c2ee751bcb4d21dU, 0xbcebde7e3ce3de6dU, 0x3d3893613d86749cU, 0x3d8716203db358f5U,
  0x3c94426d3d66ddd6U, 0xbd053da33c8e0e67U, 0x3d84db33bd16fbd9U, 0x3cb2d53a3d6bccc3U,
  0xbcf07dd33cc818c9U, 0x3d36f8debd98cf9aU, 0x399de7cbbcecbba1U, 0xbdb994813d0a8c8cU,
  0xba3a6e01bd0fdacaU, 0xbcd75331bd00b82aU, 0xbd55fb50bc533063U, 0x3db600abbb258768U,
  0xbdb418a6bdb44e61U, 0x3c392ecb3d66a94bU, 0xbd1feadc3d865fbfU, 0xbd9550dc3d9047e9U,
  0x3d49741f3d1cbc7fU, 0xbd9b581f3c9bb373U, 0xbda721ed3d910106U, 0xbcf844d9bd4a605fU,
  0x3bb1fed93c915bd5U, 0x3db63234bd576a86U, 0xbc05829a3da4ea03U, 0xbdb6730abd840c8cU,
  0xbd92f4e83c73e3f9U, 0xbdd0b947bd04d444U, 0x3da3851fbd733122U, 0xbcdfb8cf3db80de0U,
  0xbcaba3fbbda648b1U, 0x3d0b8da93e118b7bU, 0x3cd8beab3b57d768U, 0xbcdd64f9bc0504e4U,
  0xbceaafdabc710235U, 0xbdbe1e38bd2e6ba2U, 0xbc8c79393d3a90f8U, 0xbb8682e1bc3f4778U,
  0x3dc107783ce4c88eU, 0xbdda30a53d4d78d3U, 0x3d7799eabd9cdaddU, 0x3db830a53deee71cU,
  0xbbf9acf9bb40449cU, 0xbb002927bd0a4148U, 0xba4146d03e30d546U, 0xbd8b23df3db706f7U,
  0xbd3be078bd92299aU, 0x3da441a2bb2c1dc5U, 0xbc458ef93d964c48U, 0x3d11ee8b3d1d8370U,
  0xbd2be8d1bd153bb5U, 0x3dcdb151bbd5d635U, 0xbd73a3b23ce78a5cU, 0x3db8d8a5bd2d2177U,
  0x3da1e11fbde3a663U, 0xbdabb196bd4b634eU, 0xbd776a45bb104887U, 0xbda4033bbd83f6e5U,
  0x3c8a05ec3d77fed5U, 0xbda160123dead160U, 0x3db6a36c3cbd3872U, 0xbba938053d5c3759U,
  0xbce948f93b80b0a4U, 0xbd74149f3a1dcfc7U, 0x3d9edf643d8ce689U, 0x3d217c0b3d9d5551U,
  0x3d63183e3ddab823U, 0x3cc4838b3d7f01fbU, 0x3873d2073e080371U, 0xbd1119403ce9835cU,
  0x3cd8619cbd3105a3U, 0xbd1564ca3c30456fU, 0x3dadca5cbd5d0acfU, 0x3dc9ea083decd38aU,
  0xbc6567813cd316dfU, 0xbd6862143ca3e0d5U, 0xbd85b28d3e3a2855U, 0x3d22996e3b927d04U,
  0xbdc70037bd6a4800U, 0xbd81fe16bd74fc5bU, 0x3b2ff6823d98f527U, 0xbcec8c403d8f2b48U,
  0x3cb39dcabdc5bc58U, 0x3d3998f93d1bfcc6U, 0x3d7162813e171de6U, 0x3d8796a5bd459e6cU,
  0xbd7000d0be0e6e33U, 0x3d4564d2bb06a42eU, 0x3d900bf13d85cd7bU, 0x3d7b4c1dbc4c2f96U,
  0xbd9905c2bcac6583U, 0x3d7664663d9f2ba5U, 0xbc9c0f94bcb1384dU, 0x3cbf8aca3dc064e9U,
  0xbd7c3f95bdefe181U, 0x3c1edcaa3ce97e2cU, 0x3c786288bd548450U, 0xbc56e2283d6e4c24U,
  0xbd1772eebd1a2a02U, 0xbdc2e744bd806820U, 0x3d9e015a3e0d74d5U, 0xbd42a587bce4e7d3U,
  0xbb8422d43d2d3ebfU, 0xbd5a8704bd48dc2cU, 0x3d6c36c33bbc4599U, 0xbd8294c33d8551b8U,
  0xbd9b779a3be8b820U, 0xbda0c3083c36ddc2U, 0x3bb446f43dc52570U, 0x3d958ab9bd8c06e2U,
  0x3d8540c63b3c7526U, 0xbd774c96bb85f04bU, 0xbddb2f623d99f0c5U, 0x3c8f70b9bcccfd22U,
  0x3b5e0a703d4eea72U, 0x3d05b7e63cc42e94U, 0x3c56a8a03de296d7U, 0x3d76fce83cc22bb7U,
  0x3dada508bc3b82b4U, 0xbd605607bdb7342fU, 0x3d93d1bf3c9ff4dbU, 0xbc80947b3d54605fU,
  0x3d2d523cbd2b345eU, 0xbcd81c833d9429eaU, 0xbc99d6fc3c0dc2cbU, 0x3e29b3463dfb836eU,
  0x3c5ca79abd8fc660U, 0x3d57423c3d914c2eU, 0xbcb25b203d5a8f79U, 0x3d6c25c63e24730eU,
  0x3cbcb5613c92d4c6U, 0xbd9b81ad3c744d5aU, 0x3e138f943dc936c0U, 0x3d46c42bbd754767U,
  0x3da1e55b3db1e287U, 0xbd9083043d93d68bU, 0x3aab30dc3b8c9140U, 0xbcf122dd3d84b29dU,
  0xbdad533639c6530fU, 0xbd4553393cb7b394U, 0x3bf0f4173d6a8ef5U, 0xbc5a70153d7288b9U,
  0x3d2cd5c93d24bc46U, 0xbd8641bb3d568dfdU, 0x3daf683ebc439620U, 0x3c0992723c35004aU,
  0xbc566cd73d0b63e9U, 0x3d259a633db9710aU, 0x3d40bf71bdd5550fU, 0xbd088d6b3bca58d9U,
  0xbd110622bd511eacU, 0xbddec3a1bc131c97U, 0x3dbcc1debd6cc7c6U, 0xbc796257bd0e5768U,
  0xbde3ed013d24f8aaU, 0xbd38c300bdb64f7cU, 0x3d96d428bcf6c629U, 0x3d062d87bd073cf4U,
  0x3719efc4bb86b5ebU, 0xbda64bf4bba97c9fU, 0x3d6c7e863cc68a6eU, 0x3d9e79df3dc57779U,
  0xbbb8d465bd423bceU, 0x3dbd8b8cbdbf241aU, 0xbcc14ebcbdc54801U, 0x3d8abfd3bc829dfcU,
  0xbcfba9d3bbae9e4cU, 0x3d1f20d33dafdc0fU, 0x3d8cf865bd440371U, 0x3d87a9d63d027102U,
  0xbb964c69bd56a1beU, 0x3c8ab3243cf6e5faU, 0xbc3da11d3da35be1U, 0x3dca5169bd8a19deU,
  0x3d7019eebdb6ebccU, 0x3d355b7fba502eabU, 0xbdac6863bddcdf60U, 0xbd2513e2bc33f2e4U,
  0x3d4b8c08bd6b91baU, 0xbdcbefc93d6e0039U, 0x3dc4172ebcebb8cbU, 0xbd83a49bbd5efc38U,
  0xbd58f38dbd8f6e98U, 0x3d6951613abc4618U, 0x3e015f323dd41361U, 0xbcb2c9163d49ba08U,
  0xbde21defbdac562aU, 0xbcae63b5bcbf8c70U, 0x3cc8c3ecbd8c94d9U, 0x3c53ca5cbc90d103U,
  0xbd7ca0cf3cb7a6dfU, 0xb9a9704dbd30c30cU, 0x3dc1c1efbd2abb9bU, 0xbd1d396d3d4c69eeU,
  0xbd3d7f3c3cdd8b36U, 0x3dc42a243ba863caU, 0xbca789f3bda7bbb5U, 0xbda6032f3d7983a0U,
  0x3cfa6e633cc87b66U, 0xbd8883873d7d0298U, 0x3ce2c380bd9cfc8aU, 0x3d99a8d6bc4d571fU,
  0x3d0fd6e0bcffb8ebU, 0x3d2567463da8ca2dU, 0x3db6fd443cfc5937U, 0x3d1443a2bdd018ecU,
  0xbcf4c84fbd285d6fU, 0xbd5e9ce13d518122U, 0x3d8c9ae0bdeb0a20U, 0xbd35a072bd76dcc2U,
  0xbc9a8805bcb6893fU, 0xbd363cd23d1d926cU, 0xbd03c148b9d66909U, 0x3d8b63bdbd57d3c8U,
  0x3d5f07f43aeb94fcU, 0x3d684678bccb44f3U, 0xbd3c3d633dc4933fU, 0xbd2729733daa158bU,
  0x3c8c7b1b3c1c6e7eU, 0x3c1540c93db0aa01U, 0x3d46ef9bbc591d37U, 0x3d295adebc4ebd9aU,
  0xbd3cae15bce485c2U, 0x3d742be1bd07f148U, 0x3d466072bd25b128U, 0xbd75978e3bbca0ddU,
  0x3d9a9fbc3d0250b3U, 0x3d86dc76babd464cU, 0x3d121d4ebc61ca2fU, 0x3d12b2763dc1fb5bU,
  0xbde92d02bd0db8ecU, 0xbcf86b6f3d64588eU, 0x3cd2a372bd1bc619U, 0x3dccde1f3d1d55e9U,
  0x3c9ad8163d940af8U, 0x3ce513223d564191U, 0xbc2c2f783db6c386U, 0x3cef50abbcdd63c6U,
  0x3c344d743d4ce4edU, 0xbc8f36e63df0f8e4U, 0x3d3fcf87bcfd7c5fU, 0x3b9211f13cfcd50eU,
  0x3d920882bd0ed882U, 0x3c31fc533c8fc744U, 0x3d21b2e4bd0f3416U, 0x3cbbf96e3dc1e8ebU,
  0x3d72b3933d8808acU, 0xbd2680b6bd888667U, 0x3d6f4dc13d3f932eU, 0xbd2fd4043d86c7a5U,
  0xbd97b6fc3d679d7dU, 0xbd452c9fbd381c3cU, 0x3d77ac8d3dc78cc9U, 0xbd76f092bd3505ecU,
  0x3a950dfa3dac0b4dU, 0xbce517013cb11a18U, 0x3dd9573f3d09b532U, 0xbd26207e3dd43b86U,
  0x3e058464bda62ccdU, 0x3db9d551bd811799U, 0x3d28877a3d9ad5ceU, 0x3d53dbbe3d8ec054U,
  0xbb3beccd3dab5dcaU, 0x3bbb5ca13dcad68bU, 0x3c93d6b93d62f658U, 0x3df38640bd4606a4U,
  0x3ca354dd3d04b7e4U, 0x3cb8aad83d7f2fb3U, 0x3df812e2bcdb42d2U, 0xbcc963b23dd72cc4U,
  0xbdb12e34bd6c99b8U, 0x3daa43ec3d613c83U, 0xbd064b9abd8c20f6U, 0x3cc8956f3dbf0dfcU,
  0x3a294cd23c7c92f9U, 0x3ce76bd53daf09d4U, 0x3d83b872bd84377cU, 0x3ba865803d239986U,
  0x3e06294b3c21be66U, 0xbd21dcd6bdac96e9U, 0xbd0a19323dac90e8U, 0x3d905be63d9cb79bU,
  0xbd9edac5bd814632U, 0x3d25dd47bbd9fdadU, 0x3d3f96983c7544ddU, 0xbd0bc500bd882fd3U,
  0x3e03aa403c99b6b3U, 0x3dd3613d3d84a65fU, 0x3e0810bf3cfc8c95U, 0xbc4d75503dec78bfU,
  0x3e3212433ceeacf8U, 0xbd21597ebdbf1bebU, 0xbd261c083d8aca8eU, 0xbcc01a34bda07654U,
  0xbd2e2f2d3d92680aU, 0x3c01f3aa3c45b5c5U, 0xbc3eea9c3bc848bfU, 0x3e21fcf4bc20080aU,
  0x3ccdc1353d85f8c7U, 0xbc179aee3d66b2f1U, 0x3cf04454bd85e707U, 0x3dba44783d9ab857U,
  0x3d8059c93e32a3feU, 0x3db71947bd9d1ad3U, 0xbd177fe9bd4246baU, 0xbd85dad43dcc1de7U,
  0x3d5121603d855e22U, 0x3bd55850bd49e9cfU, 0xbc85692bbd1869eaU, 0x3e2448e2bdbe694fU,
  0x3da04adc3dc22814U, 0x3d4b2c0a3d3e50c1U, 0xbe30a5933c83856eU, 0xbcfa02403d3624dcU,
  0x3df8e9053a6f81e3U, 0x3d5be62d3db85db2U, 0x3d55b35c3d3794ccU, 0x3d2c5744bd71d84bU,
  0x3ce39d47be0091b3U, 0x3ca997613cd13c75U, 0xbd87764bbcf73e0aU, 0x3d1156ebbde7b0d3U,
  0xbd75eaeb3dbc076aU, 0xbd3d68f7bc1bcaf9U, 0x3daad373bdb91dd1U, 0x3b28c2c5bceab756U,
  0x3e086b4abdd8ffb5U, 0xbdde5a6abda62c01U, 0x3c002936bd2768c5U, 0x3e356b003d549612U,
  0x3df45decbd81e227U, 0x3c0dc5a23e02cfd2U, 0xbd0051223d9ff61bU, 0x3db1c8f73e16cf80U,
  0xbd35fe353d32e008U, 0x3d330ebfbe1cb445U, 0xbdb57aecbd3be711U, 0x3d7fc50d3d5bc24bU,
  0xbb91b8993d950592U, 0x3d5c8b17bd68f0a5U, 0x3d2d2776bd0b4a75U, 0xbc81c699bd83b970U,
  0xbb466f0e3c658183U, 0xbd074a563de7bbceU, 0xbb8ae91abde03541U, 0xbdd8c476bddf0805U,
  0x3d98d8323dd91006U, 0x3c2297cabdc96ab9U, 0x3de1f0883d94be26U, 0x3cc8a942bdb252a4U,
  0xbb32cc79bd7ce090U, 0xbcdc48bc3d9d2eccU, 0xbca60cd7bd4e15a2U, 0xbd194f74bd24567dU,
  0x3d69874d3e0e5079U, 0xbbccf3ff3d9542fbU, 0xbc94404dbd4e4013U, 0x3d8b9658bd8323c7U,
  0x3dc379383cc8f0aeU, 0x3cb456f2bdf83d39U, 0xbda25c82bccc4998U, 0xbbde33bcbd178d4cU,
  0xbd224ac3bde4cc11U, 0x3c8beb7bbccfd128U, 0x3db00518bd58d33dU, 0xbd9041853dd1fa43U,
  0xbd7353a33d88b52aU, 0x3cda0574bdef6567U, 0xbdad89963de560edU, 0x3d1ab7c9bd206298U,
  0xbda2b94cbda747baU, 0xbd696b123b8cd8dcU, 0xbb1023fdbd565f86U, 0x3cf9de0a3d317ec1U,
  0x3ccaf6103c4b4d48U, 0x3e074429bb878020U, 0xbe0e6232bd258b56U, 0xbbdd30aabdcfd026U,
  0x3cf6311f3c978ec8U, 0x3d50ecf03c8ada29U, 0xbcfbe11b3d47e72aU, 0xbc2bd974bbe8ef8dU,
  0xbcee405abce969f6U, 0x3d5b7519bcebdbadU, 0x3da6b7d53d3b5c76U, 0xbd0d5618bc56aae0U,
  0x3d9608d3bc0a5818U, 0x3d775993bd9f7b59U, 0x3da22599bd6b7deaU, 0x3cd2f2803ceaddebU,
  0xbd52ab413d9265a9U, 0x3a2003213a8109beU, 0x3d533f77bd8ff7f3U, 0x3e117e083c58a511U,
  0x3ba51dcdbe10b9aeU, 0x3d9ec5a63d54205dU, 0x3d02bb8a3d0d8008U, 0xbd81e90cbc48cb9aU,
  0xbd710ced3d93aab3U, 0xbd98c25cbd8cd198U, 0x3cb784d83da11dfdU, 0xbda6953ebd57c209U,
  0xbd861ad3bdbc6528U, 0x3d0a93b63cde9636U, 0xbb791207bd9dee7dU, 0xbcbce058bd87ea67U,
  0xbd05c3963da1c302U, 0x3ca5324d3cff4359U, 0xbd2a7879bc90b66eU, 0xbdf9ef4d3d4c45c3U,
  0xbca4764e3ddaf52aU, 0x3d94bf94bdd82b8fU, 0x3d0a31723de37135U, 0xbda9bcdfbd8a1955U,
  0xbd78b0dcbd73207bU, 0x3bf830553d54101bU, 0xbc8f27393d4fd6a7U, 0xbc80e7c9bd718a72U,
  0x3ce7343a3ce4c017U, 0xbc2b8f98bc170668U, 0x3cd034a03d14f7abU, 0x3d6013a8bdafb6deU,
  0x3c5d310ebd7b8044U, 0xbde1b909be005cafU, 0xbd8e62553d6d9985U, 0x3c90796e3db042f4U,
  0x3cb02bcbbd578294U, 0xbcd76f09bd4d2f6fU, 0x3d8a2b99bc74efb0U, 0x3c403f18bc0921cbU,
  0xbd8c2f113d8839c8U, 0x3c6993c33c674bdbU, 0x3b257c04bd142478U, 0x3cd749b6bd94632bU,
  0xbde33bfdbd006f13U, 0x3d09b6483dbd192bU, 0xbdd0559c3d7198cbU, 0xbc9e0554bdc347d2U,
  0xbd23e49f3d799f50U, 0xbd467077bcad1e97U, 0xbb6ce669baaa2af6U, 0x3d85861ebda91413U,
  0x3d60cad83dce1f9cU, 0x3dc07a47bdad8a60U, 0xbb520bec3b40d169U, 0xbd1fd25bbd81a38eU,
  0xbd0de145bdb36ae2U, 0xbdb6392bbda41f96U, 0x3c580a113cc3722aU, 0x3d907e1bbdb8a8f9U,
  0xbd6ba18b3d3db684U, 0xbc9be3fbbd980c2dU, 0xbb1569413cbf144fU, 0x3d57c0b83d827c6bU,
  0x3dac9f9bbceb64d9U, 0xbe0705edbbce2dabU, 0xbd340dbfbda68288U, 0x3ce2d98dbcc68c0bU,
  0xbdfc3ee2bdd413c8U, 0xbd2f58933dcb9366U, 0xbdd17a313d7efef1U, 0xbce2aaa13d24134aU,
  0x3dbc63dcbdd3fa54U, 0xbe09d3c63caac088U, 0x3da22c4b3caa9df8U, 0x3c6eaada3de93a4fU,
  0xbcf4a9bbbc50de82U, 0x3d8108533d39ef3fU, 0x3df59501bcd08663U, 0xbd8a6d873c180ec0U,
  0xbd79093ebe02d1d3U, 0xbc13fff53d0347b4U, 0x3cc4ad86bbdaf48dU, 0x3d0099983d532ce1U,
  0xbb9c9323bda4e2e8U, 0xbe0d8d4cba7daa13U, 0x3da3032e3dab974eU, 0x3e09e23a3bac48a6U,
  0xbcb291b8bcc204beU, 0x3dd2c2ee3dff28ecU, 0xbd0746ddbd9b85cbU, 0xbd8a5c98bd3680deU,
  0xbdde9c413d14bcf7U, 0xbd7f3123bded45ffU, 0x3e1d58003c78d634U, 0x3cf90e2d3c9eed18U,
  0x3dc6602c3e02efaaU, 0x3d69411abde92e6dU, 0xbdf1c935bcceccd4U, 0x3d844ca83d297414U,
  0x3d612e153d84c052U, 0x3d7068d83d00ad2eU, 0x3d12dd093d668734U, 0x3d99d889bd8f727eU,
  0x3d57e62abcc0ff49U, 0xbdb6f8b43a683d4dU, 0xbd9d32d4bd21e3aeU, 0x3d1189e63b96deddU,
  0x3d24e9b7bd710ef5U, 0x3d92a2e6bc8ee987U, 0x3da226c7bcf747aeU, 0xbdafca423e0eb87fU,
  0xbd456a4b3c369413U, 0xbc1e0638be0dc14eU, 0x3d0143bd3d92e5fdU, 0xbd662249bdf2be55U,
  0xbcd238533d07df5fU, 0x3ca002bb3d50b1b9U, 0x3d8dc4a63d7a3b18U, 0xbc0f26413da70b4dU,
  0xbd13a9b5bd004c74U, 0x3dd57eabbd32d563U, 0xbc3e4a20bc0a532dU, 0x3d78ab1f3d372a1fU,
  0xbcfe87783dcd8a8bU, 0x3d9a8b39bda23802U, 0xbd3135f63c97816fU, 0xbd11415c3db9f1ddU,
  0x3d0e4ddcbc3480c8U, 0x3e1995853c6e7ef0U, 0xbd04daf53d96ceb2U, 0xbd256f69bd1775ecU,
  0x3daec2003db522d8U, 0x3cfdd91abd572b86U, 0xbd68c3fabd662d26U, 0x3b3ef11bbdc27ae4U,
  0xbcbe63813dbb3f60U, 0xbe0da2313d1e818eU, 0x3ce53659bd835ea3U, 0xbdc02bc63cdab63bU,
  0xbc1e0d27bd6bcd2fU, 0xbd51066b3c09c054U, 0x3dd220f93db976a3U, 0xbe405a333df714c9U,
  0x3d99968cbd8b942eU, 0xbdbf8035be19c042U, 0xbadc9dcdbcd3c0a6U, 0xbd82595bbe077c18U,
  0x3cf31ac7bc52c085U, 0xbd58ccfbbbd75735U, 0x3d46fede3d9ceabfU, 0x3d5f27fbbd7b69b4U,
  0x3c3cada83e023ed5U, 0x3d1843a83df0feefU, 0x3cf199ebbd19ba49U, 0x3cc32dd93d7388aaU,
  0xbd9266f1bd7ef173U, 0xbd656daebcc863a0U, 0x3dc403943daca044U, 0x3d868be93d860e2dU,
  0xbd9764493dbdfe41U, 0xbd1283eb3def30f4U, 0xbd64f0923cb6745aU, 0xbd2aff403e0a31daU,
  0x3e0bd3df3db6e345U, 0xbd02c85a3d58594bU, 0x3d9ae9843da2db17U, 0xbd6a37b23d492e4bU,
  0xbda2ccbab98b3030U, 0xbd7c720a3cf659a7U, 0xbdbf6ea1bd4584d7U, 0x3dd19eb43ce59439U,
  0xbd5a8abb3d06b6a7U, 0x3d19d355bd1c052aU, 0xbd152428bd82b0e4U, 0xbd81880b3dd09a61U,
  0xbdd52249bd92dc42U, 0xbd848fadbda5ddd0U, 0x3d0b4c303d4af102U, 0xbdadbc8c3ccbb3e8U,
  0xbdafa19fbd34356bU, 0xbb1ef9a4bd4057b7U, 0x3cc34e04bd2d9cc4U, 0x3c2c02573bbd9c8aU,
  0x3c1e5d5bbd7fac3fU, 0x3df13421bc7af3fbU, 0x3c49da583e026e71U, 0x3d376a1fbd1b3a06U,
  0x3d8a5a44bd4a1521U, 0xbd8b57063d58ab30U, 0xbaa0e9f43a020308U, 0xbd7f1587bda3a966U,
  0x3dadeba2bd3452caU, 0x3d5bb8873d4a5b0dU, 0xbd6ae453bbc2a4dbU, 0xbdaba8a33d99d42dU,
  0xbc05a8583da5acf9U, 0xbdb3b64bbd3d5cb3U, 0xbdec8c6c3d9a5d2cU, 0x3d02dff33dc10964U,
  0xbbc261553df5da78U, 0xbcca4db83df0c2deU, 0xbd0930ba3deaae49U, 0x3de9775f3d0fa956U,
  0xbcf1afb93e090fe2U, 0x3a1341183d259f2bU, 0x3c313109bb90cc2aU, 0xbde8ba6c3e1afb5cU,
  0xbdecbf0a3da285e4U, 0xbbe84364bd453cb2U, 0x3b63c48c3b052ab0U, 0x3b86791c3dabceefU,
  0x3d7a0755bd0d5d0aU, 0xbcf902593d9c56e2U, 0x3daeaf923cfd6dbcU, 0xbd47c5f1bd2e36b8U,
  0x3d81c802baecd7bdU, 0x3e0ab8413d2990a4U, 0x3ad7c6243e00f7acU, 0x3d3258d9bd5a30bbU,
  0xbda224523c243c2dU, 0xbddef7fe3d0449b8U, 0xbcf1b28fbcc75dd7U, 0xb907ff78bccd742fU,
  0x3dfd0fa2bd86e9aeU, 0xbaeb6528bc895a28U, 0xbcf4f9b8bd8bf413U, 0xbd4e6bf6bc67faf3U,
  0x3d8454bf3d7eeb52U, 0x3daf54b4bcac597eU, 0xbd9dd6713da8a131U, 0x3c85cbd03c271f06U,
  0x3c924d753dd0e570U, 0x3dbeb82e3d4eba41U, 0xbcbfe635bd89590cU, 0xbd92e128be0a403aU,
  0x3b9ee6a3bd267441U, 0x3d4acb26bcb5f5a7U, 0xbab06d7fbdc01b46U, 0xbd3b2a183d8c67baU,
  0xbd1cfa94bbdd414cU, 0xbc8b03703d08d5cdU, 0xbe499550be3783d5U, 0xbd9ab60f3d0d1b4cU,
  0x3ca0efa13cb6b136U, 0x3dbbdaa33b8e8c5aU, 0x3cfddfb039d535d3U, 0x3d0ac5f8bd8d8a31U,
  0x3da71045bda9f7d3U, 0xbda67e4eb8ede797U, 0x3de9b41abc27c7d2U, 0xbc8154073dd27f87U,
  0xbcaef6633a0bacb6U, 0xbdcc99c23d953629U, 0x3cde3cd6bd2131e0U, 0x3a66893ebd0b0162U,
  0xbdcda112bdddfdb6U, 0x3bdaf3703d5fa2a9U, 0x3d8858933c1459bfU, 0x3e2903c7bd033383U,
  0xbcbb6f7fbd640c46U, 0xbd1c1fa1bdb160d9U, 0xbe46029dbdbade80U, 0x3d3666383d4582d7U,
  0x3d2b197c3e0b4578U, 0xbe0031a1bda07bd2U, 0x3d6682b93cf1c2e7U, 0xbdfd711cbd2b7f89U,
  0x3d864f8c3df76f8eU, 0xbd1c0a7bbe02dee3U, 0x3dd90b95bd790ab1U, 0x3d06f2253d9f6fc2U,
  0x3d7a145cbded1792U, 0x3dc8fff13cb6df95U, 0xbcce61bcbe2686adU, 0xbd1bc19b3dad53c6U,
  0x3dea01d4be2555aeU, 0x3e302d3a3d25feffU, 0x3dc472133dbfbe04U, 0xbdf80ec8b996e48bU,
  0x3c7738c0bde445b3U, 0xbd8846c0bd306728U, 0x3e324920bdc3e0b2U, 0xbdb88de7bdfe1dc5U,
  0x3cb90abc3da87d27U, 0x3ada9ad6bdd1d433U, 0xbe070584bdc5e147U, 0x3d2a34e13b346448U,
  0x3cd36ae2bdc8f2b6U, 0xbd6d36b1bd664743U, 0x3da75b7d3d9f6ca4U, 0x3db58831bddaec7cU,
  0x3df24b13bd921f89U, 0xbe1c06f0bdb4a079U, 0xbe265fbfbdaa2745U, 0x3c92fa51bdfcc067U,
  0xbd55f46f3d320fd2U, 0xbd0ea627bdf6fd6aU, 0xbc9a3e8abe0973abU, 0xbcc88d32bda4f17bU,
  0x3d4169613d27166eU, 0x3d218215be0b6806U, 0xbdaeda533c0d9942U, 0xbdda096ebbe70ef3U,
  0xbd91309bbaf0137dU, 0xbd6c3a023e01e522U, 0xbe094dd93d01a31fU, 0xbd0e4a153cbe271aU,
  0x3d203b7ebdcfffbcU, 0x3d096990be2880a6U, 0xbc5cf9463cf4a728U, 0xbdf56027be35f37eU,
  0x3dc8ba7b3d3d9c96U, 0xbdc101623ca25a5bU, 0x3d7e6941be0a4eb2U, 0x3da57b12bda0e4d2U,
  0xbdd3628b3cfe81f5U, 0xbd9e89b4bdb22c42U, 0xbe0085efbdcc2e76U, 0xbc199fdcbcf9326eU,
  0xbcdf35c43bd5939eU, 0x3d0ab963bc50f745U, 0x3c9ee3a33d32ea2bU, 0x3e3dbe70bdcbbe4fU,
  0xbd53cca8bcaac2daU, 0xbd634e353d40c7a2U, 0x3d8f3a6dbdbce7f8U, 0xbbdf9588bdd842b0U,
  0xbe19c1d83da520e5U, 0xbd8041a43d8a8fd0U, 0xbdfdf7de3c9c4d20U, 0xbd6855edbe156fb4U,
  0xbd6f71fbbd98a875U, 0xbd4dc46bbe00b212U, 0xbd61a298be07d8f6U, 0xbd515505bc59b0caU,
  0xbd32ced13caa0aa0U, 0xbc5297a9bc479c69U, 0x3c8c5bcb3c8f11b5U, 0xbd80bb203c1750e3U,
  0xbd36d7a5bd6d49f1U, 0xbcdde5b73d7ce7fcU, 0x3db73d26bd08e05dU, 0xbd1d6b95bdee778aU,
  0xbdadcb44bc28ed5eU, 0xbd10151abe0a2c7bU, 0x3e08d6603d48e03fU, 0xbdeeabb8bbe22102U,
  0xbdaf8570be105e07U, 0xbda8b0f8be1b845fU, 0x3d936cebbe0dc5b3U, 0x3c10ff18bdf9f246U,
  0xbdec615ebce13668U, 0xbd97999cbd12f318U, 0xbd89ea733dbb2bc5U, 0x3e06530bbcfb9da9U,
  0xbda8211dbe15eff3U, 0x3d175349bd35dfd1U, 0xbdcd5e59bd0fd0eaU, 0xbdc4dd853caab882U,
  0xbe12d386bbb727afU, 0x3d58d7153b71cfe0U, 0xbab1597bbdedc88aU, 0x3a9af020be31e884U,
  0x3daf8fcb3c8c351aU, 0xbda289603d45a033U, 0xbde555c2bd4514b9U, 0xbdc14badbe101a76U,
  0xbddd98463c08e37bU, 0x3c47009fbd96c5c3U, 0x3cbd088ebe31b3b6U, 0xbe32e3e33d79a66aU,
  0xbdd3bcf1bcc31baaU, 0xbbc76fa6bd16f0bcU, 0xbd665008be17206eU, 0xbcdfa5f7be06ca04U,
  0xbe02b5c7bdbf36f0U, 0xbdc9bf743c88cf36U, 0xbd743e6a3d701d9dU, 0xbd505e9cbe1ed152U,
  0xbe107c2dbc8ac0b4U, 0x3d6f2f72bca77e96U, 0xbcc1de723c62d82bU, 0x3db341d7bd8ac44fU,
  0x3b717c42bcafe46cU, 0xba0f07dfbcda6f13U, 0x3cfe09b7bd4a4933U, 0x3e4278f53dcad7deU,
  0xbdcb171cbd9c6ab8U, 0xba49eb06bd0020f7U, 0xbd5338763ad0e128U, 0xbd55bb353c83b001U,
  0xbde3d18c3d146548U, 0x3cba6c63bd4a6d15U, 0xbc92d527bd83cf80U, 0xbd7f83c63e032163U,
  0x3da1d0023be66502U, 0x3d98f7f13cbe9d24U, 0xbca6e8663d8d9d5fU, 0x3ca2aca13d236ef3U,
  0xbdf70d263d8840f3U, 0xbcb57dc23dd229a2U, 0x3c1ae2673dc04fd2U, 0xbc6bcb4cbd2f98cbU,
  0x3da42fc7be229b19U, 0x3d72cf12bc9b5632U, 0x3b2659313e021b3cU, 0x3d68656ebd5060deU,
  0xbd59f88cbd8e9fd8U, 0x3d29ac7c3d8ceda9U, 0xbd075afebc8852fcU, 0xbce882dbbd2ed2a6U,
  0xbd42374ebd736883U, 0x3c67f965bc815934U, 0x3caffe27bd67f854U, 0xbd1108e9bd9359c3U,
  0x3bdeda003c9e7806U, 0xbd4f4d54bdac06feU, 0x3d0bbfc5bd5df1d9U, 0x3e0aa2c5bd6a28a0U,
  0x3c89afa93d472f01U, 0xbd2ed2ffbd916457U, 0xbc83b70f3cf8c9c9U, 0x3d64d7ec3dbafce3U,
  0xbdbe4d983dd66ce7U, 0xbd82b07bbd876c39U, 0xbdca64f2bc7264a3U, 0x3ca5c1123d8fd6cdU,
  0x3d05d32f3d9fc1ffU, 0xbcdff87cbd121312U, 0xbd390f35bc4329d9U, 0x3d8557d1bd5cff96U,
  0xbc37b01e3d05a534U, 0xbde2f1b6bc2d3ea2U, 0x3c13de07bcb283d9U, 0x3d9fbc15bd06f69bU,
  0x3c488bd8bdd5122eU, 0x3d069d713d479aeeU, 0x3d7a4af83dc6beceU, 0xbd8ca1413d8314b1U,
  0xbd9ab722be14b69bU, 0xbd9029893c14ecc0U, 0xbcc2c14e3dc2c777U, 0x3d2be3c8bba0e736U,
  0x3d1c51fb3d362577U, 0xbcced8a83bb25088U, 0xbcc5e2b5bd883d78U, 0x3d883898bd49c46eU,
  0x3db619e7bd09ac46U, 0xbc79506c3c504a85U, 0x3c07cdd3bdf0359aU, 0x3e1c8d24bd037173U,
  0x3d1ca0eb3cce9d4aU, 0x3ccffeb2bd8d64f9U, 0x3bd3242f3bbef219U, 0x3d83e6d53d1bdd27U,
  0x3d1e6b4dbc11b51fU, 0xbd2324febd60a6caU, 0xbdfdf8733db4aed7U, 0xbd90ea193e15596dU,
  0x39900b943da2c965U, 0x3cc429d13d0f4636U, 0xbd3a59b13d60c488U, 0x3da8ccd93d610964U,
  0xbcf89c07bd395e33U, 0xbd1b00253c54f335U, 0xbcb3aa2b3daae2fcU, 0x3d7a62ba3cb0bd16U,
  0x3df7225ebd22f3d9U, 0x3d8af4213d695610U, 0x3d47f629bbe09479U, 0x3c4aedd2bd0416a1U,
  0xbc6a26973cdc9173U, 0xbd62244d3ce7dacbU, 0xbd9dbe043d26b36cU, 0x3b34adc03d8c8c8aU,
  0x3d84ca86bd6cb444U, 0x3da96d0c3dbeb681U, 0x3d2333113d618809U, 0x3d25b39cbd3d349dU,
  0x3cf76126bd7b83ecU, 0x3d71f4ff3cbd493fU, 0xbcce34fcbd76c7b9U, 0x3d5e630c3d66aa23U,
  0xbd0bc6893d2041faU, 0xbd85f64bbd9de5e8U, 0xbc7d2bc4bda782cbU, 0x3c329086bd686da1U,
  0xbccfdd763d90e039U, 0xbd046b8fbd2c4429U, 0xbd1994ef3d43dc15U, 0xbcb9e2823e082919U,
  0x3c652cc4bc5f7a65U, 0xbba91739bda3e515U, 0x3d43079b3af7396aU, 0x3d3958cbbd918da3U,
  0xbdb0164a3d70d9b3U, 0xbcc41186bc9d4008U, 0xbc7ae3fabd17bd0cU, 0xbc1e5fb4bd82db25U,
  0x3e023c69bd37b01bU, 0x3c620938bcebac87U, 0x3dc6a7663d455ca6U, 0x3d03b629bcd39711U,
  0x3d11026d3b9a9af7U, 0x3d4e46513ce0b4c1U, 0xbd4f60fd3d2ab62dU, 0x3cfdf65b3dab7a50U,
  0xbd3a992bbd918dbbU, 0x3cab69543cc60a7fU, 0x3b2031b7bb2dbf74U, 0x3d920caa3d251353U,
  0x3da94e12bcea97f5U, 0x3dac9022bc0bc435U, 0x3ccccc143d187dbfU, 0x3e0673b83da23e76U,
  0xbcab6fccbd799435U, 0xbcc65f333d063727U, 0x3d4969ecbd34ce68U, 0x3d870f78bbbaadb9U,
  0x3d2486a13cbbd193U, 0x3c7ac6ac3cb3fe50U, 0x3d4715b13cdd60c5U, 0x3dc311173c356552U,
  0x3d784467b9678951U, 0x3dcf7cee3cfe7a14U, 0x3c1834fdbc92e580U, 0x3da96c663c4970bbU,
  0xbdbb13d73d1e757eU, 0x3cbdf1c43d784600U, 0x3d7002bbbd1ee4f6U, 0x3d6fd78f3b841850U,
  0xbd20a77fbd19707fU, 0x3cacea25bc966ba2U, 0x3d85d7683d567737U, 0x3b830281bbbc42afU,
  0x3da44d8abd2f95c3U, 0xbd8d9a55bc844f6cU, 0x3c5fe93ebd5f2697U, 0xbdac354b3b13c10eU,
  0xbc99c0093cc82bd6U, 0xbd1edc19bc6bccefU, 0xbcf3977dbd06d7f3U, 0xbd4762fa397d65e9U,
  0x3cacb92d3d311b7cU, 0x3db13381bd33e148U, 0x3ce523afbbb9f1e9U, 0x3dd32990bd5e1373U,
  0xbc8aaf333bd0ff39U, 0xbb846e36bd643b39U, 0xbb9920a8bdb91a43U, 0xbd5bd2953caab56bU,
  0x3bc290c3bda20587U, 0x3ccc69c33c788d7eU, 0xbcc17592bc80cfe3U, 0x3cd79aebbb8966feU,
  0x3c9b1aa0bc0ce5f5U, 0xbd5c671e3d27a154U, 0x3bfe8352bc9dae24U, 0xbca88bdf3c30b9e6U,
  0xbc2fa5c7bc01d577U, 0xbcebc8cf3bdcabbdU, 0x3d0defea3c78816cU, 0xbc43566d3cfab0efU,
  0xbcdd6bd0bd2d7930U, 0xbe31f66bbd2b0061U, 0xbc4411523cc89901U, 0xbcdbecf53ced55ddU,
  0xbd1dfc57bd277282U, 0xbc86cab63d4dc1c3U, 0xbe308111bc0fbca9U, 0xbd0cef183c9a289cU,
  0xbcf2054b3d007988U, 0x3c631aa5bd0240a3U, 0x38b50f37bd26d35eU, 0xba7f54b8bd54a6a3U,
  0x3cae4b693cc6c69bU, 0xbd1fd25e3bddd89dU, 0xbd03f018bd606af9U, 0xbe2862d3bc75a2c7U,
  0x3d615b563d2baacfU, 0xbd0fa082bd063ae8U, 0xbcc81e24bcb238ecU, 0x3d13da3c3d6a7304U,
  0x3d073b9abdd19a43U, 0x397b92b2b92116b2U, 0x3c7db48bbd209148U, 0xbbf17283bcff5e8fU,
  0xbd2514443d1e4fe2U, 0x3d00d55abcabe027U, 0x3cc42253bcd92229U, 0x3d7cdfeabd83f8a1U,
  0xbd0b582b3d622af3U, 0xbcb6d9bdbd328f46U, 0xbd3d4f68bbc23564U, 0x3d3597653d2df0bfU,
  0xbd2b8057bc573bc0U, 0xbe2a047fbd7392dcU, 0x3c816884bd136b31U, 0xbd4084013cf45818U,
  0x3d2b68a5bd7edb71U, 0xbcc2bec9bd061af6U, 0xbe0ea63bbcff7bc8U, 0xbc3f33743d32f94fU,
  0xbbbdf7a5bb9877bcU, 0x3ca836d53d567c90U, 0x3c68eccabc899f83U, 0x3d0087c83cdb1ccbU,
  0x3d10f862bc1d42ebU, 0xbdad52873c5e7993U, 0xbdab8484bd2376a2U, 0xbdd53153bcc85f9cU,
  0x3d506757bc0e1af9U, 0x3c297c033d4fc2e6U, 0x3bdcd1463cf4b9efU, 0xbc06eec3bce302deU,
  0xbceb2c45bd6397f2U, 0xbcff0ada3cdc3ca1U, 0xbb6768da3d29f615U, 0xbd0b1a633d4f042aU,
  0xbafad88dbd07add7U, 0xbd5cf2fabd449c96U, 0xbd0f112e3d023527U, 0x3d80150ebd7d9e9cU,
  0x3aadddb3bc57b4faU, 0xbd3e0ac4bc0e46b5U, 0x3d0c4e6b3cf61facU, 0xbc08a90bbc956fcaU,
  0x3d6386cf3d5130b7U, 0xbe14814d3cffeab3U, 0xbcd387a8bd3b7114U, 0xbd1b768e3d63ab3aU,
  0xbcc864a43cad5befU, 0xbc075c4c3d42202fU, 0xbe1f5360bc78a397U, 0x3c16b6063d46cc4bU,
  0x3d276844bbd305c4U, 0xbca838203ceaf11cU, 0x3d0b32da3d3d6bfcU, 0xbb26f427bcff5ceaU,
  0x3d3a77d0384440b4U, 0xbccf8cd23d30fc1cU, 0xbd1db877bd9d6080U, 0xbe1d94edbd8c3351U,
  0xbb10d33c3d244eb3U, 0xbb901a69bd03c3b8U, 0x3cc5813dbc5b49c4U, 0x3d50e674bcf48673U,
  0xbd35b650bdb2cf80U, 0xbd08fa203be23599U, 0xbca0c08fbaf33310U, 0xbce037d23d3d88b9U,
  0xbd597a053d4e8709U, 0x3d314717bc6f6b64U, 0xbc8ad54f3c974e29U, 0x3d6e0cc1bc4e43f4U,
  0xbca2010f3d2a022bU, 0xbd5befaabcc53054U, 0xb79fa2023cba2c7dU, 0x3d4870c33c9ebe12U,
  0xbce65ea0bcc857d7U, 0xbd8ea01fbcc0f97eU, 0xbc5e71923cf251aaU, 0x3c85fa8b3c88deaaU,
  0x3cacda0cbc6d8fb7U, 0xbcea3fb4bcb5e2b6U, 0xbe33b0403d86e098U, 0xbd97b2a73d9497c7U,
  0x3d4dfd333c8193b8U, 0xbcd3f6a3bca8fac2U, 0xbd2133273c8b937aU, 0xbcfbf56f3c415ae5U,
  0x3d23d089bd150a25U, 0xbd2d64f8bcf9bbeaU, 0xbd8aedbf3bd83b8dU, 0xbde80ff6bcaa847fU,
  0x3d7853743be3685aU, 0x3a952dc53d0576efU, 0xbce178333be71339U, 0x3c50c3c5bcd98d08U,
  0xbd056947bd2c00a0U, 0x3c9337013d8f3a78U, 0x3c2d26963cd658a3U, 0xbd1c9410bce4bfecU,
  0xbba9975a3d339cc9U, 0xbd5d1ed93b5cbff2U, 0x3c7785ebbcd76ea4U, 0x3d63882b3cc2a3feU,
  0x3cca23013cd324adU, 0xbc4ad4cd3c9eb1f8U, 0xbc0f50de3d44edc6U, 0x3c049597bcec6c17U,
  0xbd23e73a3d22af78U, 0xbdb2ceb5bd596561U, 0xbbb0a735bcac3425U, 0x3aebad9b3c8a75afU,
  0xbd169e64bcc1ec79U, 0x3c7795f7bc3f5669U, 0xbe335beabb6f6cd7U, 0xbda7448dbc2bb5a2U,
  0x3d405f1d3cf69a11U, 0xbd1877a0bd066f5cU, 0xbc62ef023a3829e6U, 0xbce5c1e73c7a5d1eU,
  0x3d3256babcdb9c25U, 0xbd27b3053d2215fcU, 0xbd4e9601bd90b484U, 0xbe215ef33d006225U,
  0x3d346750bcca1046U, 0xbcf7f221bcbfd0ecU, 0x3c5f52563d0dc76eU, 0x3d5517763d3f8b9aU,
  0x3cdbb08c3d59bbb8U, 0x3df50bca3d472530U, 0x3dd58dc93dc99bbcU, 0x3d3e2504bc843ee5U,
  0xbd88b2093cc6f601U, 0xbd462bb43da514b2U, 0xbc952bd5bd110631U, 0x3dfe5ec63c3431e5U,
  0x3d9487503d23c443U, 0x3c1cec5d3d1e2069U, 0xbd867c65bd8025f3U, 0xbd5f6c0cbd812770U,
  0x3cf22c123da12a03U, 0x3d0fb46dbd2479b9U, 0x3c41399bbda055e1U, 0xbdd1156b3c6b4011U,
  0x3cc97b173cc00cd3U, 0x3c09acef3c72d9f8U, 0x3c6667003dc2df80U, 0xbda94f1bbd522d82U,
  0x3d1da5c63c0815d6U, 0xbc8b57bd3b143bc9U, 0xbd9aaebe3d8c22a3U, 0xbca3029a3d2d68f3U,
  0xbdcea5543ba47ba9U, 0xbdc8d58b3d63587aU, 0xbd15492d3c861277U, 0xbdebbcf93cc04017U,
  0x3ca546843d62a1baU, 0xbc74ce4b3b8d9d15U, 0x3da52d8b3c3dbc3eU, 0x3d64dc07bd8feb92U,
  0xbd2b53103d913ce2U, 0x3de9eaba3d985442U, 0x3d59fb763da8f2cfU, 0x3d8287853ba3b896U,
  0x3bd490e9bc53ce6eU, 0xbd94bf243dbaa29eU, 0xbc6ed2b83ce587dbU, 0x3e1325763c1d1e14U,
  0x3c5e80833d863a7aU, 0x3dc4d079bcada64bU, 0x3cadf9a1badf8849U, 0xbd086e993cd5baa4U,
  0xbdbea5f53e0cf3b6U, 0x3d85d2bdbcb60eecU, 0xbd59ca44bdaaf0e8U, 0xbdb38626bd3ee5a7U,
  0x3d1fd5a43cf3c6f1U, 0x3d3b910fbc45c7ffU, 0x3c841e093d691354U, 0x3d679190bcab170cU,
  0x3ccc53c03d047de4U, 0x3b0fbede3d4a6139U, 0xbd4c63cdbcba465bU, 0xbd2e22babd77b14bU,
  0xbd23bcd03c7c737aU, 0xbdd85863bb178a6aU, 0xbc2403d13d8970a2U, 0x3bd39880bdc6c756U,
  0x3db200f53d951ec0U, 0x3d0081cd3d3ff43aU, 0xbc0736c23c11cd54U, 0xbc50fe1dbdbc923cU,
  0x3b768c0bbd263de1U, 0x3d27ceedbd7f3393U, 0x3de99c33bc197965U, 0x3d03dd1cbd839c8bU,
  0xbd34af67bd92f7a2U, 0x3d8494083da0c6faU, 0x3bcf41293d981edaU, 0x3dfe8c36bc472499U,
  0x3d0f04eb3cd10794U, 0xbbdbc3a73c110685U, 0x3be615a6bd7e9d52U, 0x3d4841d23b868c26U,
  0x3d3786013e38dbf9U, 0x3d960860bc2b0428U, 0xbd6d116a3ced88b4U, 0x3d471cd43d670d0fU,
  0x3bab0d323d257d77U, 0x3d4bce26bd2edc84U, 0x3c5788b2baa447cfU, 0x3baffc093d093413U,
  0x3db93c79bd19a205U, 0x3d38ffe53c67dbcdU, 0x3bc832b2bc93e6eaU, 0xbd7bcd06bd4868b0U,
  0xbd14a3303cc79c83U, 0xbda2457dbd1a0478U, 0x3d73bd77bd58e15fU, 0xbc9efc28bd48629eU,
  0x3d4784e33d708ff1U, 0x3d1970b73d1b9d38U, 0x3cb9f30ebd612f60U, 0x3d9939fdbd74497cU,
  0x3db5c69b3cd7f18aU, 0xbd4c23dcbc56ec01U, 0x3d84d74e3df585c7U, 0xbc40b3d8bda80493U,
  0xbd9b5c243db8d483U, 0x3c7745adbcaacb0aU, 0x3d64dcdcbcdc2a2dU, 0x3ddc5554bc22f074U,
  0x3d93ff18bae4c824U, 0xbd559eb8bcf53f39U, 0x3d0c931fbd7d8df7U, 0xbd9b79cfbd71f837U,
  0xbcf7c63b3dff05e1U, 0xbc61ab32bd187c1bU, 0xbc6226383d8e88afU, 0xbd0aa0fa3dba9420U,
  0xbd84b14d3cdb44a4U, 0xbd8697243d99392aU, 0x3c0932443c84b9d3U, 0xbc34dc4dbdaa4acfU,
  0xbc8f377d3cea1668U, 0x3d1f3301bc4f26daU, 0xbd6648433d6e82a9U, 0x3da8d84b3d8affecU,
  0x3c91e6e0bd915d0eU, 0x3d40fc51bd5bc7c6U, 0xbc8ea366bd89180cU, 0xbd0c7940baf3c3aaU,
  0x3c6ee5263d3060feU, 0x3db234433d147e66U, 0x3d52a044bd460ba0U, 0x3c2364253d39d8deU,
  0x3df3ca7fbb823fdcU, 0xbcb0f4873d400b59U, 0x3dc2a7b33d592c89U, 0x3ba69c52bd9df5aaU,
  0xbc8550233cfad8dfU, 0x3c6dddbf3d837176U, 0xbd32d557bada6385U, 0x3e0ec3533d8ea8e8U,
  0xbd33b9133e02091bU, 0xbd89f2b3bc76396aU, 0xbd106420bb448811U, 0x3d208b8f3d6bc3d0U,
  0x3d9dea823e38d36aU, 0x3d5176613bed9e2cU, 0xbcff30273d785afbU, 0x3d12c0c83bac8a55U,
  0xbc47a9553d30680eU, 0xbd7abb6f3c47f2e8U, 0x3dad52873db55358U, 0x3d99f8c23c8ae29eU,
  0xbbf1675bbd442ebeU, 0xbd0e70c4bc1e63b1U, 0xbcbd1bf3bc99c8fbU, 0x3d4658bd3be60b1fU,
  0xbdb72ef4bda28b76U, 0xbb38e8d73c2fbfe4U, 0x3dac6d583c234d70U, 0xbd5e6f113c55b3caU,
  0x3dd5d7e23c77d3a6U, 0xbbc9f5253d0dee5aU, 0xbd3b87c43de06d46U, 0x3d751c783c2ad02eU,
  0x3c377aeb3d6acb79U, 0x3d2c9f4fbdde3093U, 0x3cac82e0bd15a109U, 0xbd7c18ba3cd2dcebU,
  0x3c11a1b83d93812cU, 0x3d8707d93c733b22U, 0xbde0f2e2bc17c2b0U, 0x3cc36ddf3da2a10cU,
  0x3d101f75bc75de59U, 0xbc493c6ebb315046U, 0xbd20ef513ce56587U, 0xbbc2d7f8bd87858bU,
  0x3d8139e83d3ae4bcU, 0xba3f1b333d30904fU, 0x3ca3ca49bccd8602U, 0xbbdbe0dbbd4d2999U,
  0xbdc1fce9bd8b2e48U, 0x3b666f3d3d2beb27U, 0xbd8035a13c843024U, 0x3c82f9ea3bf39adbU,
  0x3d5fe0dd3dd34da5U, 0x3d0d622f3d3f5f3eU, 0xbb5c68e4bcec1cadU, 0x3b4fc935bd520bc6U,
  0x3dc2abcf3db307eaU, 0xbce218dcbd9187efU, 0xbd93cae63d6387d9U, 0x3d84d12c3ccad299U,
  0x3e0a372c3c458d98U, 0xbb42c495bd10a917U, 0xbc1cedc6bce30a69U, 0xbc02e3b23aeafe08U,
  0x3d426f50bd55286fU, 0x3dba928bbd6468dcU, 0xbd8d6e1bbd717d20U, 0xbb868cffbd6d09ddU,
  0x3d116ef33da9792eU, 0xbd8197513c98c2c0U, 0xbce89ad63d55822aU, 0xbce7e7c23dbd8f59U,
  0xbcd7d2be3d9d421aU, 0x3d54a9a63b5cf99dU, 0xbd8a17bcbc897951U, 0xbd06f01abd7d42d1U,
  0x3b6a289f3c07d3f4U, 0xbd619aa73d7866b4U, 0x3c3511453d6f972dU, 0xbd174659bd7727dfU,
  0x3cfef21a3d45e7b3U, 0xbd3976b23d1bb97eU, 0xbd1089f73d634abdU, 0xbdf487f53c9b84d4U,
  0xbcc8a34e3c7f085cU, 0xbd051601bb8e2188U, 0x3d6aa3d8bd66d67bU, 0x3d848cf13c9357ceU,
  0x3da0d3aebc025130U, 0xbce3a2e3bd0df34dU, 0xbda40594bc0a47d6U, 0x3c664b213d77cbbdU,
  0x3e0222373cc1a82fU, 0xbd5d593d3d05ae02U, 0xbd474e8f3bf97f47U, 0xbbc3788a3cc018c7U,
  0x3bdb2a3e3c8fe972U, 0xbc955953bd4090a0U, 0xbd275d1e3d35b99aU, 0xbd36b4043d2d15b0U,
  0x3ddadddc3dae1357U, 0xbc9940153d2fcf16U, 0x3d7dcfd2bc568ec0U, 0x3d9085b53dc0ed3eU,
  0x3c8659b5bc70bcb9U, 0x3d9f8caebb873989U, 0x3d0631d5bbc65a6bU, 0x3d0db9d5bdbf339dU,
  0xbb957cb5bd867d00U, 0x3d8301cc3d58182cU, 0xbd95cdcabc9a679fU, 0xbd5c89853c08cf5aU,
  0xbd60eaa8bd38d554U, 0x3d9e1ee1bc154ad5U, 0xbd420a173d69f6dbU, 0xbdb08587bd592408U,
  0xbca2e0693ce1beaaU, 0xbc8d25003dae5d0eU, 0x3d7fbfe0bc492129U, 0xbd8a2cfa3bdaa7f3U,
  0x3d2cdad63d507332U, 0x3d24bd3ebcc6b948U, 0xbdf32de73cb10741U, 0x3d0edcb13d89b92eU,
  0x3dcda8c2bd20c5efU, 0xbc22c2e3bda0e440U, 0xbd9b228ebd812d82U, 0xbbca14a9bbe9a445U,
  0xbd75045ebd7e4813U, 0xbd2405e0bda0ead4U, 0x3d06b477bd20f878U, 0xbd8fbe1a3d3b3518U,
  0x3dd8b11c3d38771cU, 0x3cc7f4f33cde0bf3U, 0xbd3c8c92bc3d8e56U, 0x3d9dd1b43de34a2fU,
  0xbd13ee7f3d9ba2aaU, 0x3d2ec05bbd678871U, 0x3c6c1a17bce6704bU, 0xbdb0a1e43c2f01d1U,
  0x3d9fdb7abda75b42U, 0x3d550d58bcdbd6bdU, 0xbdca6989bdcce684U, 0x3d45e57a3d816b85U,
  0x3d84660bbd881ec6U, 0x3cef64093d3c0e18U, 0xbd8ba74abbae56e0U, 0xbd64df9c3d432589U,
  0x3d84f225bc8c4173U, 0xbc7523233d0f26ddU, 0xbbc25b6fbad54774U, 0x3c1327743c1bc701U,
  0x3dfa0cb7bd5cccd3U, 0x3d85839a3d46c69dU, 0xbd612163bd442ac3U, 0xbc1b67dabd626e98U,
  0x3d7edc97bc73478bU, 0xbadc94fdbb7142f7U, 0x3cde698ebc943627U, 0x3d74b38cbc34ec73U,
  0x3a778c683bcb8a35U, 0x3dbe2bfe3c25b452U, 0x3cf3c6663d5dd098U, 0xbd43a2a73d6c23bfU,
  0x3dba3080bb243774U, 0x3b81ab23bbe5fe06U, 0xbc3842ef3d6c10f3U, 0xbd2b599d3db1e7deU,
  0x3d0a84ea3da71168U, 0xbcdfec853c35eb41U, 0xbd9983e13cc32975U, 0xbd7113f9bce1c326U,
  0x3d5975ba3ce8aefeU, 0x3ab5a1323d29f4ebU, 0xbcee8df8bd973502U, 0x3cecbcf63d47360eU,
  0x3dd3c1ae3d601425U, 0x3d0e0243bc88f3b7U, 0xbdb73d9b3d9446d7U, 0xbcde99adbc74f8a8U,
  0xbc9d38503dc39f87U, 0xbd0dfbd6bbdfadcfU, 0x3c53758d3dc98054U, 0x3bf6907f3d5804a4U,
  0x3d186d683cd5f76bU, 0xb9b3dd0fbd1311cfU, 0xbdaabb37bd9fc6a4U, 0x3d85b0073d32b485U,
  0x3c89ab953d08e028U, 0x3cc76b7cbbb52a48U, 0xbdc98157bbd61531U, 0x3d49b1c9ba33487aU,
  0x3b80d91dbdd8f39aU, 0xbdbc88893cc5894fU, 0x3c4215943ce3af7eU, 0xbdda30ecbc46f1b4U,
  0xbe072f45bd4b2eecU, 0x3dae1c763cd92d10U, 0xbdbebffa3d8e1679U, 0x3d851a20bd1be776U,
  0xbe06041a3cfc0030U, 0xbe717e4ebc69277aU, 0x3e0882cb3dc0b0c4U, 0xbd894dc0bbe0442eU,
  0x3d9c42b6be09723fU, 0xbd033ee8bdd0a601U, 0xbc1e5db63c81962bU, 0xbd30a0ee3ca2b880U,
  0xbdb7585dbd012c69U, 0xbd988d5c3e0f713dU, 0xbba039d23cb137d9U, 0xbda2a1f73d799c65U,
  0xbd686b3d3dd0c5d0U, 0xbdec443f3de16b56U, 0x3d09272d3d64af4fU, 0xbcefe6ba3d72d2c6U,
  0x3d6e55503d07124dU, 0xbbcccb8abc61cf5aU, 0x3d7a1baebe39251eU, 0x3dd320b4bdd82c42U,
  0x3db3b5493d983b15U, 0xbd9013583d9fe925U, 0x3dfb02ed3df8122cU, 0x3e09e41f3ca2038eU,
  0xbd47f982bded9ccbU, 0x3c2149a73d18db5bU, 0xbd8e81613dfc5045U, 0x3dbb7b2f3ca43c66U,
  0xbde20438bbcb415dU, 0xbd0b2d5abcde2ce8U, 0xbc5a9fccbd74e771U, 0xbbd19d60bd6af3dcU,
  0xbd625cb13da4fc5aU, 0xbd7ec0083da356f1U, 0x3e1b94af3db6b566U, 0xbd805474bd97142eU,
  0x3d28ab103d68232cU, 0x3d468eccbd108a54U, 0xbdb023fabd18e1c2U, 0x3d92c06cbb2725d2U,
  0xbe0bcee23d9db8ebU, 0x3b7d13ec3e0ee55aU, 0x3d5b3f563d27c7c2U, 0xbdaf361a3de4fbf0U,
  0x3c7a3e8f3e032057U, 0xbbaa6cf83d33161fU, 0x3cca9e783d9754c4U, 0xbce1be553a35b1c2U,
  0xbc0e93623dbc6efeU, 0x3d28bafcbc3f419cU, 0xbc9c989abe0a6923U, 0x3dee5853bd1af704U,
  0x3dbcb15abcdc48baU, 0x3d5df969bd86c1f8U, 0xba427c68bd5de4e6U, 0xbcf70e053ac1975eU,
  0x3c9f3771bcdbd676U, 0x3bcc2b0b3da47544U, 0xbc9cd24b3d3877bcU, 0x3e1a5dcbbd5da39eU,
  0xbccbd1403d9ac7eaU, 0x3d6959b83dd38ccdU, 0x3a333ee9bc91a02dU, 0x3d7ce4c43dbeec10U,
  0x3d1ba177bcb13d1aU, 0xbe0478fdbb9284f7U, 0x3d4fb76f3cefdb4eU, 0xbd82df11be0940a2U,
  0x3dcd682dbc5a8632U, 0xbca1242d3d6504f8U, 0x3c7419723cfe06d7U, 0x3d66bccabd5a3247U,
  0x3c330f833d9fb47bU, 0x3dec1b333de7b36eU, 0xbd4bc3b2bb8ca1dcU, 0x3a0c1943bcf07658U,
  0xbd4c68a13dac2d27U, 0x3d1883683dd614d3U, 0x3d44cc413d94dfb1U, 0xbcff5aa4bda13c57U,
  0xbce67bcdbbab4de7U, 0xbcbe59ef3baafa8dU, 0x3d47d7f93d4ec17cU, 0x3d07cb12bca5a09bU,
  0x3db75bd23d98829fU, 0xbc4466383d4c0ce4U, 0x3ce172cc3dce04f9U, 0x3cae0fc0bd11dde2U,
  0x3db8c622bd005a5aU, 0x3ddf1d423c4ad375U, 0xbd11da8e3d61cd84U, 0x3d88fe63bd947794U,
  0xbe406cf63e180648U, 0x3d82be29bd6bd657U, 0xbdd7a4843dc0391eU, 0x3d8c1e713dac54d9U,
  0xbd2c07043d75a2b5U, 0xbd8236973da4666cU, 0x3d9a10d0bc9bae45U, 0xbdb7255b3d3c1cbaU,
  0xbcc086343dc03a26U, 0xbd3f3fc03d1dcb20U, 0xbb41589d3daf6507U, 0x3da24bf7bdeab8e6U,
  0x3d4886023cd204a9U, 0xbdc346113c8983ffU, 0x3d0ab0c93d917fd7U, 0xbd3a47343d8a020aU,
  0xbc80d22d3d9f63f5U, 0xbe0472e23d3a136eU, 0x3d7e869c3c4311b7U, 0x3cfcbe1d3d9ba675U,
  0x3ddec0ce3d5c1fd3U, 0xbc152e253dbc67e0U, 0x3b5d464d3dcf5e55U, 0x3d9fad213dfe25f5U,
  0xbc094f933d98c0afU, 0x3c26fdee3d97d428U, 0xbd378bf7bc8baf7dU, 0xbd510323bd5e144bU,
  0x3deb14e0bc3b0f49U, 0xbca102723d7e8893U, 0x3bccc2f63e433a1dU, 0x3bd039a23d8d11a9U,
  0xbdb060ed3b2088c7U, 0x3c8353c3bb5931f9U, 0x3d05ff18bc0c41b8U, 0x3d2aef3cbd4b572eU,
  0x3db7da273e148005U, 0x3cabc1f73daa03beU, 0x3de6546dbdb28c0bU, 0xbdcf7226bd30eec0U,
  0x3e1662af3d27cd44U, 0x3dc4b0e0bd6ed700U, 0xbb663425bdce6ea6U, 0x3daf34eebcc2c6d3U,
  0xbbe086a13d48c8d2U, 0xbddd41993aaacedfU, 0xbcc79a643d1ad44bU, 0x3ca0586e3d27ec1aU,
  0xbd5fe3423db73ad3U, 0x3d4198103dbc8540U, 0x3d9b6a193d9510ebU, 0xbae56b93bc728e9fU,
  0x3e00eab43cd7f655U, 0xbc4445b03d3b41caU, 0x3deb33653cf38b7eU, 0x3e18179a3d20a90aU,
  0xbd4849e1bddd50c1U, 0xbc26aa843d30d2adU, 0x3d009b723e059a5eU, 0xbd816bab3d0b6b70U,
  0xbdc1ab833ddcb697U, 0xbdcb51e23b77fa14U, 0xbc0808363d3eb77dU, 0xbe03bb233da874a4U,
  0xbe8837b7bd211a3cU, 0xbd198b703d9ff091U, 0xbd814f94bdb2d22eU, 0x3d16dd4fbd259c9bU,
  0xbdb149f1bcd3fc8aU, 0xbe02fc52bd72d47aU, 0xbccfa88fbcbfd912U, 0xbdd228c73d952c1dU,
  0x3c40b96bbdb606deU, 0x3db7c6ebbdb5bd75U, 0xb96ffe193dbbcdcaU, 0xbd8c90e6bda42ff0U,
  0x3d6c051dbe2613d0U, 0xbda099933d9bbdffU, 0x3d0e59ecbcb37e13U, 0x3d3fad5fbcdd9ad4U,
  0xbd4d04bc3da29dbcU, 0xbe2e991e3d5de487U, 0xbbcfc6f1be0818b7U, 0xbd8dbfadbd3ff13aU,
  0xbd9c16dcbe40ba94U, 0xbbdf541ebe2023faU, 0xbdb49d06be51a7e2U, 0x3e827ca5bdaf1087U,
  0xbd50e0213de79661U, 0xbe20d5b6bdbc1b79U, 0xbb66ea18bd6f5792U, 0x3a5839c5bb6cd944U,
  0xbd97edb9bce7a874U, 0x3d5c43b63d5e4e38U, 0xbe1e271d3c995c9cU, 0xbe11c5c63d8aac9bU,
  0xbdb13c5b3dbad38bU, 0xbd03790c3db99a49U, 0xbdb60891bd454187U, 0xbd1049da3c1396b6U,
  0xbcfb40da3d956ee4U, 0xbe2b401f3d1f6089U, 0x3b0e1b15bbc7b605U, 0xbe25d5e0be127284U,
  0xbcff64fd3d6fdddcU, 0x3e2b1973be0793e3U, 0xbc9835f43a130200U, 0xbc863dd33d0a3042U,
  0xbcade013bda3921dU, 0xbdaf0329bd067e74U, 0x3da2846f3d56d834U, 0xbdcdf591bc2f3192U,
  0x3ca29f4c3ce0272aU, 0x3d2a36d5bd3fd547U, 0x3d7e9ce33cef8d0bU, 0x37e901c5bc31caeaU,
  0xbd25d562bd59ce9eU, 0xbd3e5dbbbd74cd90U, 0x3d546fe2be0fd444U, 0x3da635123c874893U,
  0x3d9c023d3cf53a1cU, 0xbe01dbe43cbe5ae3U, 0x3ca6809ebd6f8347U, 0x3d8de9e4bd42c1bfU,
  0xbbbbc135bcfe63ceU, 0xbc299c27bd77d9aeU, 0xbdab775d3dbee554U, 0x3da583f9bdb46279U,
  0xbb3a76e93cedfdaaU, 0xbcecf42a3d602c9eU, 0x3dbb44813d4d3988U, 0x3d883552bca5a0baU,
  0xbb028228bd0d4f92U, 0xbcfff67bbd9bf6f5U, 0x3cd6e503bdb798c5U, 0xbe4acbe4bdfb0f77U,
  0xbc894d113d96830eU, 0x3c86d6e7bd8ef3efU, 0xbd66479abd46202aU, 0xbdae98ec3dcdaad9U,
  0xbe3939d93da0c7afU, 0x3d65fa03bd517baeU, 0x3e1933043de7799dU, 0x3d46fc94bc26a9cfU,
  0x3cff8912bcbaacc9U, 0x3ca84edd3df7a9afU, 0xbcb4cd6d3cf4bb52U, 0xbd6f54bdbc9c80a3U,
  0x3dcdaf16bd7f3416U, 0xbe01921d3da1df4eU, 0x3d8b63a7bd866fb4U, 0x3e32fe38bd9a5c34U,
  0x3c86fef93d916beaU, 0xb8e263e3bd90c24dU, 0x3d99a5eb3db967f1U, 0x3de2fb87bba67b09U,
  0x3d297e023c087a2fU, 0xbde330173da96fadU, 0xbd9e9f963d874e05U, 0xbd9cb140bd8c11acU,
  0xbd455118bc986a64U, 0x3e1e72463b49b789U, 0xbd2e80093da13e82U, 0x3cb6b5493e44f12cU,
  0xbd0b8e263d7b4ec6U, 0xbb98ce96bda7d7b1U, 0x3ca2503a3d69a27bU, 0xbe4d5555be3cbdfdU,
  0xbd12145f3ce31406U, 0x3de2a8ee3d1eebfbU, 0x3d0c598cbd85b16eU, 0xbd8c56633dd74ef4U,
  0x3c8b4a41bbc2ea6cU, 0x3d7fd5783e0769d7U, 0x3d1ed2abbd8aad95U, 0xbdacb239bcaa3165U,
  0xbc3f0086bcddf287U, 0x3cb75fc43de78ff5U, 0x3e0af4e43c96ebfbU, 0xbd93b72d3e0384baU,
  0x3da700223e04245dU, 0xbe031a44bcbcb916U, 0xbc2d608bbd2b7472U, 0x3e1c9116bd58664cU,
  0xbd2d5e33bd41a0c4U, 0x3dfd948fbd563a9dU, 0x3c896b533dc20a23U, 0xbda4b6a23d80044eU,
  0x3d7ed44c3da6a714U, 0xbd3af9383dc07af7U, 0x3de275973c8b18b0U, 0xbc5d86243ca2ff83U,
  0xbe0618b93dbcbf7fU, 0x3e466b65bc073d5aU, 0xbb2729ac3e10b8d0U, 0xbccca2093e1f0222U,
  0x3d5650d73e03a6abU, 0xbe7d67e1bd60e03cU, 0x3e0eca453d81abd1U, 0x3d61b83abd6af957U,
  0x3e21d2073d42082cU, 0x3dc2dd183dd67755U, 0xbd36c0bfbe07863bU, 0x3d3c236d3d183cc2U,
  0x3c13235e3d187fbcU, 0x3d8369c63d025b63U, 0x3e29dd573e1ba19aU, 0xbcfe50063e2beafeU,
  0xbdc123d0bcbc02dcU, 0x3dc7e5953e1aaa33U, 0x3c1221093e4fe442U, 0xbe0818a33e283a98U,
  0x3de11da4bc86ce1dU, 0xbda15c893da883b1U, 0x3dc2a8363a464120U, 0x3e9151793d9b0187U,
  0xbd9c1290bd5fdafaU, 0x3d5326683deb398aU, 0x3c0ff6b33df3acc1U, 0xbc8061d5bbdd791bU,
  0x3d5b3cd0bd2b9a82U, 0x3bfffe75bd86a8d7U, 0x3b8081c0bb904396U, 0x3d5b6ff6bd42d0d2U,
  0x3b853e453d004be8U, 0x3db3a2cc3d837da7U, 0x3e034081bd9b61e6U, 0xbd0ff540bd93c45fU,
  0x3ca067b1bcbc6bfcU, 0xbdadb041bd931d3aU, 0xbd97d2943c765a18U, 0x3d529bd33dc57ef8U,
  0x3d4299303d173915U, 0x3b52d95bbdc375e3U, 0x3d6bd93ebddc6a04U, 0xbdfd4b393c06a170U,
  0x3da736a3bd731fedU, 0x3c1d05fcbdb5ceabU, 0x3db3e7dabca6ad91U, 0x3e36750e3c817d6eU,
  0x3d3ba3d5bdcaf333U, 0x3c939002bcffc031U, 0x3d3ca37a3d0885b6U, 0x3dfd2b373c931cd0U,
  0x3dd5621c3cc6ac34U, 0x3dd006d33e17060dU, 0xbdf6c02fbdef89c9U, 0xbd11c18fbdd9b4afU,
  0xbdc73e4ebcca5ddeU, 0xbda170673b1e3691U, 0xbc6e0c18bcf4a020U, 0x3d46d1143debd785U,
  0xbd35d9dbbdca5194U, 0xbdc690e93d7a7c4fU, 0xbdc3f8d2bdf747f2U, 0x3ccb698bbdb8fa69U,
  0xbddb9a37bd9c43b5U, 0x3da64389bd4d71bfU, 0x3dd204a9ba7910f5U, 0xbd915d46bdd3e25bU,
  0xbd52790fbe153d5dU, 0xbd96f42abd40d649U, 0xbbe89e2abde36644U, 0x3e0d55f53e2d6f8bU,
  0x3d5810aabe14ce5eU, 0xbc7a15403da11273U, 0xbe183a173afcb0edU, 0xbd01bb68bdfd41d5U,
  0x3e1a6a273d2c31e3U, 0x3cd59e7abcea0bd8U, 0xbd0f0e5fbcb99003U, 0xbc92f530bd809942U,
  0xbe14c5ba3ce109c9U, 0x3d5205993c8b97a2U, 0xbca6f3043d3afb48U, 0xbc5256873da4d346U,
  0xbd849e48bda7d9c2U, 0xbd9a98b73c2e16bbU, 0x3d2bbb093c9cd389U, 0xbcbaff2ebdf25ddbU,
  0xbd9db1afbddec69eU, 0xbcc354da3e166807U, 0xba35f7c23caf9d4bU, 0xbdc1587f3db92b26U,
  0x3d81098dbd976bebU, 0x3cbc19933d41c9a5U, 0x3ce7c0273d05ccdcU, 0x3dec5a9bbcb568c9U,
  0x3d240804bba07922U, 0x3d8a741cbd850005U, 0xbd312df7bdb055e1U, 0xbc53e727bd6ea8b7U,
  0xbe07a5993d83c6b7U, 0xbc7cc819bd85b2ebU, 0x3c4bf8b3bd2173e8U, 0xbd16b094bc816f21U,
  0xbd960d8bbe0f01d8U, 0xbd629b9bbe12aef9U, 0x3d394d8d3d085ca7U, 0x3bdb620fbc8c68e9U,
  0xbdd47dcdbcb1cf44U, 0xbccbf567bd8b4d01U, 0xbcb80f0abd2b500aU, 0xbd78e39dbd42c161U,
  0xbe290335bd78b9f5U, 0x3dbc45213d96dc6bU, 0x3db980e2bcea89f5U, 0xbe05b48c3d033e8aU,
  0x3d46acc5bdcd7b77U, 0x3d867b77bdd4124fU, 0xbe2482abbd91fc82U, 0xbdc06906bdba9b8bU,
  0xbc3ebfcd37102a98U, 0xbcb570be3e1bdf99U, 0xbd8f8d6dbda592ccU, 0xbd3580a93d505a4dU,
  0xbc94a130be497ac3U, 0xbdd243b5bdc0c163U, 0x3d717ab839b0e953U, 0x3e0230fabdabd116U,
  0x3d19bb99bd97ac46U, 0x3ddb5369bca28a2cU, 0x3d4d3a01be1a0544U, 0xbc4ff45f3db14ec8U,
  0x3c8fe31ebdda3f67U, 0xbd5b1c7f3c565c30U, 0x3d2aa6b4bc758a34U, 0xbd80604c3dfc615dU,
  0xbda539d1bdc48476U, 0xbd8a7e9cbd80c9b5U, 0xbdfa42ebbd2607b0U, 0xbd331b7ebd0b7348U,
  0xbd93ab5d3d8b77b4U, 0xbd152b87be17497dU, 0x3b609d72bd9e0c8aU, 0x3d989a5ebe1482a2U,
  0x3d3693d0be05fdecU, 0xbd8d610cbd5f9d18U, 0xbce5d476bdfae5aaU, 0xbcda03093dee1ad8U,
  0xbe2176d2bb3ede62U, 0xbd137060bd141ffbU, 0xbda10cc33ca5b5c6U, 0xbd97a135bdffa54dU,
  0xbd73cef3bde52c3dU, 0xbc2495693dfb0f19U, 0x3d40e7b1bd008da8U, 0x3d0c05773bfa6c70U,
  0xbd2d0e26bc841abcU, 0xbcc16ee0bd9adc56U, 0x3d742256bd678678U, 0x3e113b8ebd9c01d4U,
  0xbe23cad83d752750U, 0xbd60a60abcb68a29U, 0x3bc0459cbcab6376U, 0x3cfe89813d81d3b3U,
  0xbc3276ce3da62893U, 0x3d52f9453d3f5b01U, 0x3e5c6771bcb81812U, 0x3d73768b39ff1b6fU,
  0x3d3431f1bd280aeaU, 0xbe581f0fbe1375daU, 0xbd93a87c3d889223U, 0xbd9df116bd3145caU,
  0xbe41d3f23df1835fU, 0x3c83c2093b32666dU, 0xbd9be7efbe184c5cU, 0xbda447633d3dcb84U,
  0x3b79bbf6bdd8f52dU, 0x3dce0f6b3de80caeU, 0xbcff9c03be0f0489U, 0xbdc03c6d3e068fa7U,
  0x3bdb7042bda52ff1U, 0xbd21ea24bd3bf0a4U, 0x3dac18b4bdad2aa3U, 0xbd13e1d8bd2c8588U,
  0x3c0064cf3c67ffd5U, 0x3bd7d87f3da57efeU, 0x3c4effc53db0453bU, 0xbc0af537be1ad6a9U,
  0x3d3af60fbe748472U, 0xbe0565783da38aebU, 0xbcaa4f2a3d236866U, 0x3e2e2dd4bddc486eU,
  0x3dfce56a3da80320U, 0xbe62f6f53dd44759U, 0xbc6c3a4ebd7a44acU, 0xbd41ff6ebdbc18c3U,
  0x3cc40ba6bdae4415U, 0xbe2ad4a83cd2d76eU, 0x3de2a8c73e50fc0eU, 0xbea2d344bdbf4693U,
  0xbdcd39a6bda2445eU, 0xbd7a7c193e3eceeaU, 0x3d3d7dc23d83ffb0U, 0x3d0c1d53bbe015cfU,
  0xbe2713253ddfc090U, 0x3da0ee2bbc11d2f6U, 0xbd1cd2763cb78e97U, 0xbd1dce053d831f2cU,
  0x3e24d2333e0c5fbdU, 0xbc80e39dbd690e83U, 0x3de7feaf3e16c7bcU, 0xbe2dd0313d8aa562U,
  0xbde73e623e085490U, 0xbca6405cbd012d5dU, 0x3d5e49e8bd557105U, 0xbe3a4a083d628530U,
  0xbdd931a93d2db3b9U, 0x3b9b5784bde677bbU, 0x3e0a835b3e38e1e9U, 0xbd99135fbe5204fbU,
  0x3e55c839bd53e5f6U, 0xbe338bfb3e0e7d2aU, 0x3e4dadcabe01ac87U, 0xbd6204963d9156e9U,
  0xbdb176df3c4f9463U, 0xbded408f3d99b550U, 0x3e1b89cb3e236042U, 0x3dd24d913e1ab28bU,
  0x3db4dc84bdf521d0U, 0xbdc7515bbd731ce9U, 0x3d445d493e2625cfU, 0xbd12ca98bd455890U,
  0x3c4b2646bdc92f4cU, 0x3dbdd903bd139a19U, 0xbe30667a3c2f9962U, 0xbb0774e13cb94b51U,
  0xbe122a02bd85b1e3U, 0xbcb80aa83de3b6ecU, 0xbda3b83a3cc537ecU, 0x3d61aa063dcb8418U,
